{"vocab_size": 30272, "vocab": {"ni</w>": 0, "ka</w>": 1, "daa</w>": 2, "o</w>": 3, "nyɛla</w>": 4, "din</w>": 5, "di</w>": 6, "bɛ</w>": 7, "ti</w>": 8, "maa</w>": 9, "be</w>": 10, "n</w>": 11, "la</w>": 12, "nyɛ</w>": 13, "ŋɔ</w>": 14, "yi</w>": 15, "yuuni</w>": 16, "ŋun</w>": 17, "zaŋ</w>": 18, "shɛli</w>": 19, "mini</w>": 20, "a</w>": 21, "bi</w>": 22, "mali</w>": 23, "niŋ</w>": 24, "lahi</w>": 25, "mi</w>": 26, "lala</w>": 27, "ghana</w>": 28, "ban</w>": 29, "li</w>": 30, "of</w>": 31, "zuɣu</w>": 32, "n-ti</w>": 33, "so</w>": 34, "tiŋgbani</w>": 35, "na</w>": 36, "tooi</w>": 37, "tuma</w>": 38, "pahi</w>": 39, "puuni</w>": 40, "pam</w>": 41, "bee</w>": 42, "naa</w>": 43, "yaɣili</w>": 44, "chaŋ</w>": 45, "zaa</w>": 46, "ni.</w>": 47, "karili</w>": 48, "yɛn</w>": 49, "</w>": 50, "saha</w>": 51, "ba</w>": 52, "n-": 53, "tiŋgbaŋ</w>": 54, "shɛŋa</w>": 55, "nti</w>": 56, "ku</w>": 57, "united</w>": 58, "nya</w>": 59, "shikuru</w>": 60, "yuli</w>": 61, "booni</w>": 62, "kuli</w>": 63, "nima</w>": 64, "yina</w>": 65, "piibu</w>": 66, "gbaŋpiɛla</w>": 67, "che</w>": 68, "gba</w>": 69, "ni,</w>": 70, "bihi</w>": 71, "m</w>": 72, "ma</w>": 73, "states,di</w>": 74, "n-nyɛ</w>": 75, "amaa</w>": 76, "kam</w>": 77, "nira</w>": 78, "yaɣ'shɛli.</w>": 79, "niriba</w>": 80, "chɛ</w>": 81, "hali</w>": 82, "goli</w>": 83, "tingbani</w>": 84, "polo</w>": 85, "gbaŋ</w>": 86, "tiŋ</w>": 87, "dini</w>": 88, "yɛli</w>": 89, "silimin</w>": 90, "n-daa</w>": 91, "bia</w>": 92, "ya</w>": 93, "pa</w>": 94, "zani</w>": 95, "ayi</w>": 96, "kalinli</w>": 97, "shɛba</w>": 98, "nam</w>": 99, "paɣa</w>": 100, "naawuni</w>": 101, "northern</w>": 102, "la.</w>": 103, "and</w>": 104, "dɔɣi</w>": 105, "kpa</w>": 106, "the</w>": 107, "nim</w>": 108, "tum</w>": 109, "n": 110, "doli</w>": 111, "tiŋ'</w>": 112, "kamani</w>": 113, "salima</w>": 114, "boli</w>": 115, ",</w>": 116, "kom</w>": 117, "university</w>": 118, "yini</w>": 119, "baŋsim</w>": 120, "vihigu</w>": 121, "gɔli</w>": 122, "tiŋ": 123, "zuɣu.</w>": 124, "deei</w>": 125, "a": 126, "pili</w>": 127, "gbaai</w>": 128, "hi</w>": 129, "dali</w>": 130, "tuuli</w>": 131, "bu</w>": 132, "school</w>": 133, "dama</w>": 134, "yiɣisi</w>": 135, "in</w>": 136, "lee</w>": 137, "wuhi</w>": 138, "biɛhigu</w>": 139, "polo.</w>": 140, "shɛm</w>": 141, "karimba</w>": 142, "puuni.</w>": 143, "dagbaŋ</w>": 144, "yili</w>": 145, "region,</w>": 146, "lan</w>": 147, "taba</w>": 148, "wuhiri</w>": 149, "bɛn</w>": 150, "maa.</w>": 151, "i</w>": 152, "o": 153, "dagbamba</w>": 154, "tiri</w>": 155, "kpe</w>": 156, "bo</w>": 157, "m-be</w>": 158, "ŋ": 159, "zugu</w>": 160, "doo</w>": 161, "paai</w>": 162, "zaŋti</w>": 163, "nyaaŋa</w>": 164, "gari</w>": 165, "yaa</w>": 166, "silimiin</w>": 167, "labi</w>": 168, "doo.</w>": 169, "b": 170, "karim</w>": 171, "kaman</w>": 172, "national</w>": 173, "tali</w>": 174, "ata</w>": 175, "bini</w>": 176, "g": 177, "ri</w>": 178, "tamale</w>": 179, "shee</w>": 180, "region</w>": 181, "soli</w>": 182, "li.</w>": 183, "e": 184, "maa,</w>": 185, "nigeria</w>": 186, "gu</w>": 187, "shɛli.</w>": 188, "pala</w>": 189, "biɛɣu</w>": 190, "i": 191, "åô</w>": 192, "tinsi</w>": 193, "u": 194, "duu</w>": 195, "bɔri</w>": 196, ".</w>": 197, "ŋ</w>": 198, "puuni,</w>": 199, "zuɣu,</w>": 200, "sɔŋ</w>": 201, "education</w>": 202, "wuhiya</w>": 203, "naai</w>": 204, "m": 205, "pia</w>": 206, "diri</w>": 207, "bε</w>": 208, "sani</w>": 209, "jintɔri</w>": 210, "tiŋa</w>": 211, "laɣim</w>": 212, "vaabu</w>": 213, "e</w>": 214, "bahi</w>": 215, "yɛltɔɣa</w>": 216, "\"": 217, "district</w>": 218, "naan</w>": 219, "college</w>": 220, "new</w>": 221, "la,</w>": 222, "gbana</w>": 223, "high</w>": 224, "tu</w>": 225, "jɛndi</w>": 226, "’</w>": 227, "niŋdi</w>": 228, "ti": 229, "yila</w>": 230, "ŋuni</w>": 231, "yihi</w>": 232, "doro</w>": 233, "tuhi</w>": 234, "na.</w>": 235, "yi": 236, "baŋ</w>": 237, "li": 238, "du</w>": 239, "bela</w>": 240, "siyaasa</w>": 241, "chuɣu</w>": 242, "s": 243, "k": 244, "ni": 245, "—</w>": 246, "kali</w>": 247, "ɣu</w>": 248, "ko</w>": 249, "daliri</w>": 250, "liɣiri</w>": 251, "da</w>": 252, "to</w>": 253, "nasara</w>": 254, "cheyohi</w>": 255, "ma": 256, "kum</w>": 257, "anahi</w>": 258, "pɔi</w>": 259, "shɛ": 260, "paati</w>": 261, "ŋa</w>": 262, "pahiri</w>": 263, "ɛ": 264, "taɣi</w>": 265, "di": 266, "su</w>": 267, "pa": 268, "piigi</w>": 269, "kpamba</w>": 270, "pishi</w>": 271, "zali</w>": 272, "senior</w>": 273, "zuliya</w>": 274, "tumdi</w>": 275, "ŋɔ,</w>": 276, "pun</w>": 277, "nuu</w>": 278, "pakoli</w>": 279, "maŋa</w>": 280, "kana</w>": 281, "bagabaga</w>": 282, "shɛhira</w>": 283, "yɛla</w>": 284, "dii</w>": 285, "bâ</w>": 286, "ʒi</w>": 287, "tooni</w>": 288, "kaya</w>": 289, "chani</w>": 290, "leei</w>": 291, "ŋan</w>": 292, "yuma</w>": 293, "anu</w>": 294, "yuya</w>": 295, "balibu</w>": 296, "ŋmɛ</w>": 297, "beni</w>": 298, "tudu</w>": 299, "tɔbu</w>": 300, "pam.</w>": 301, "lu</w>": 302, "salo</w>": 303, "bɔ": 304, ")</w>": 305, "y": 306, "france.</w>": 307, "south</w>": 308, "dunia</w>": 309, "zooi</w>": 310, "yaɣa</w>": 311, "t": 312, "africa</w>": 313, "ra</w>": 314, "l": 315, "daŋ</w>": 316, "m-": 317, "shâåa</w>": 318, "sabi</w>": 319, "ʒini</w>": 320, "o.</w>": 321, "zaå</w>": 322, "d": 323, "daadam</w>": 324, "ŋɔ.</w>": 325, "saɣi</w>": 326, "ku": 327, "\"</w>": 328, "kani</w>": 329, "kpuɣi</w>": 330, "ba": 331, "(": 332, "january</w>": 333, "n-be</w>": 334, "nyεla</w>": 335, "nyâla</w>": 336, "ŋmɛri</w>": 337, "bi": 338, "-": 339, "municipal</w>": 340, "bin</w>": 341, "assembly,</w>": 342, "lana</w>": 343, "gu,</w>": 344, "buɣim</w>": 345, "yu": 346, "“": 347, "kuli,</w>": 348, "gbampiɛla</w>": 349, "(</w>": 350, "gbaŋ": 351, "p": 352, "kpalim</w>": 353, "c": 354, "west</w>": 355, "piɛ": 356, "dalun</w>": 357, "bu": 358, "1</w>": 359, "bâ": 360, "gbali,</w>": 361, "malila</w>": 362, "kul</w>": 363, "tu": 364, "pii</w>": 365, "zangbalun</w>": 366, "alaafee</w>": 367, "zaa.</w>": 368, "zuɣulana</w>": 369, "yuni,</w>": 370, "paɣaba</w>": 371, "li,</w>": 372, "jintɔra</w>": 373, "yɛ": 374, "du": 375, "sokam</w>": 376, "si": 377, "party</w>": 378, "taɣibu</w>": 379, "laɣingu</w>": 380, "ŋuna</w>": 381, "zangbalung</w>": 382, "shâli</w>": 383, "lahabali</w>": 384, "nyɛ": 385, "karimzɔŋ</w>": 386, "dabisili</w>": 387, "pahila</w>": 388, "niå</w>": 389, "kukoo,</w>": 390, "magni,</w>": 391, "s</w>": 392, "bɛ": 393, "western</w>": 394, "a,</w>": 395, ":</w>": 396, "nyerizegu,</w>": 397, "ɣa</w>": 398, "sunsuuni</w>": 399, "sa": 400, "mablo,</w>": 401, "yɛri</w>": 402, "yɛliya</w>": 403, "ninvuɣ’</w>": 404, "tahi</w>": 405, "ŋo</w>": 406, "north</w>": 407, "yino</w>": 408, "kpɛma</w>": 409, "pɔri</w>": 410, "da": 411, "ri": 412, "ayopɔin</w>": 413, "zuêu</w>": 414, "2020</w>": 415, "an": 416, "dulizugu,</w>": 417, "yuun</w>": 418, "taada</w>": 419, "tingbanni.</w>": 420, "dagbani</w>": 421, "suhu</w>": 422, "lahibali</w>": 423, "hi": 424, "miri</w>": 425, "bin": 426, "biɛ": 427, "a.</w>": 428, "ha</w>": 429, "tihi</w>": 430, "n-zaŋ</w>": 431, "maŋ</w>": 432, "ŋmani</w>": 433, "shikuriti</w>": 434, "east</w>": 435, "constituency</w>": 436, ";</w>": 437, "o,</w>": 438, "dagbaå</w>": 439, "african</w>": 440, "dihi</w>": 441, "gbanzogu,</w>": 442, "shi": 443, "john</w>": 444, "kpi</w>": 445, "piɛla</w>": 446, "niribi</w>": 447, "lɛbi</w>": 448, "world</w>": 449, "dibaa</w>": 450, "nyaaŋa,</w>": 451, "kɔ": 452, "wum</w>": 453, "maani</w>": 454, "barina</w>": 455, "zu": 456, "gomnanti</w>": 457, "å": 458, "gili</w>": 459, "fukumsi</w>": 460, "-</w>": 461, "piligu</w>": 462, "galisi</w>": 463, "kuro</w>": 464, "tiŋ'karili</w>": 465, "republic</w>": 466, "nyâ": 467, "ɔ": 468, "nɛma</w>": 469, "democratic</w>": 470, "tɔ": 471, "tam</w>": 472, "tia</w>": 473, "for</w>": 474, "yani</w>": 475, "kpaŋ</w>": 476, "ŋme</w>": 477, "'": 478, "su": 479, "nwodua,</w>": 480, "dina</w>": 481, "soya</w>": 482, "r": 483, "polo,</w>": 484, "daabiligu</w>": 485, "do</w>": 486, "hal</w>": 487, "lo</w>": 488, "za": 489, "ghana.</w>": 490, "nini</w>": 491, "yaan</w>": 492, "ɣi</w>": 493, "pi": 494, "pini</w>": 495, "pihita</w>": 496, "na,</w>": 497, "linjima</w>": 498, "nye</w>": 499, "kumbungu</w>": 500, "yidana</w>": 501, "degree</w>": 502, "europe</w>": 503, "angola</w>": 504, "pɔ": 505, "bihi,</w>": 506, "zuɣusaa</w>": 507, "kukuo,</w>": 508, "kara</w>": 509, "ninvuɣ</w>": 510, "yini.</w>": 511, "december</w>": 512, "zo</w>": 513, "si</w>": 514, "shâ": 515, "chɛ": 516, "20": 517, "noli</w>": 518, "gi</w>": 519, "bori</w>": 520, "f": 521, "pu": 522, "zaani</w>": 523, "2</w>": 524, "yaɣ'": 525, "/</w>": 526, "puhiri</w>": 527, "june</w>": 528, "yoli</w>": 529, "tabibi</w>": 530, "international</w>": 531, "tabili</w>": 532, "do": 533, "central</w>": 534, "nia</w>": 535, "shɛm.</w>": 536, "gɔmnanti</w>": 537, "kuri</w>": 538, "ya": 539, "pihinahi</w>": 540, "nu": 541, "duuma</w>": 542, "la": 543, "science</w>": 544, "lihi</w>": 545, "n-niŋ</w>": 546, "dari</w>": 547, "yan</w>": 548, "dee</w>": 549, "dibu</w>": 550, "so": 551, "kuɣu</w>": 552, "nyaɣisi</w>": 553, "parliament</w>": 554, "tim</w>": 555, "duri</w>": 556, "minister</w>": 557, "malibu</w>": 558, "saa</w>": 559, "shεli</w>": 560, "zaŋdi</w>": 561, "bo": 562, "saɣim</w>": 563, "kpaŋsi</w>": 564, "titali</w>": 565, "simdi</w>": 566, "ayɔbu</w>": 567, "sa</w>": 568, "sani.</w>": 569, "ba.</w>": 570, "2016</w>": 571, "august</w>": 572, "kpɛri</w>": 573, "vihi</w>": 574, "patriotic</w>": 575, "mani</w>": 576, "h": 577, "wu": 578, "tampion</w>": 579, "titali,</w>": 580, "kundi</w>": 581, "sagnarigu</w>": 582, "t</w>": 583, "gbani</w>": 584, "no": 585, "yaɣi</w>": 586, "mahama</w>": 587, "pali</w>": 588, "(bɛ</w>": 589, "march</w>": 590, "mi": 591, "dabaa</w>": 592, "ashanti</w>": 593, "nim’</w>": 594, "lu": 595, "palli</w>": 596, "binshɛli</w>": 597, "ya.</w>": 598, "anfaani</w>": 599, "an</w>": 600, "october</w>": 601, "bikura</w>": 602, "sulinsi</w>": 603, "pam,</w>": 604, "puhi</w>": 605, "kurili</w>": 606, "bindirigu</w>": 607, "mɛ</w>": 608, "ka": 609, "zaɣ’</w>": 610, "c</w>": 611, "abdulai</w>": 612, "sabbu</w>": 613, "d</w>": 614, "may</w>": 615, "be": 616, "pɔhim</w>": 617, "zaŋla</w>": 618, "gbubi</w>": 619, "taarihi</w>": 620, "gbewaa</w>": 621, "yiŋa</w>": 622, "naba</w>": 623, "je</w>": 624, "gba": 625, "niŋ": 626, "viɛnyɛla</w>": 627, "paɣiba</w>": 628, "taba.</w>": 629, ",": 630, "buyi</w>": 631, "za</w>": 632, "bɔhimbu</w>": 633, "ŋmanila</w>": 634, "me</w>": 635, "niya</w>": 636, "talahi</w>": 637, "february</w>": 638, "wa</w>": 639, "yân</w>": 640, "gɔ": 641, "2012</w>": 642, "bɛni</w>": 643, "saha,</w>": 644, "niri</w>": 645, "yiri</w>": 646, "gbunni</w>": 647, "tuɣi</w>": 648, "tuma.</w>": 649, "zaligu</w>": 650, "un</w>": 651, "puli</w>": 652, "ʒiri</w>": 653, "germany</w>": 654, "nyε</w>": 655, "gu": 656, "july</w>": 657, "tiŋa.</w>": 658, "ko": 659, "technical</w>": 660, "paa</w>": 661, "piibupiibu</w>": 662, "piligi</w>": 663, "secondary</w>": 664, "zɔ": 665, "tuui</w>": 666, "ninvuɣu</w>": 667, "congress</w>": 668, "binshɛɣu</w>": 669, "ɣi": 670, "uni</w>": 671, "kwame</w>": 672, "u</w>": 673, "ma.</w>": 674, "nyini</w>": 675, "bahindi</w>": 676, "fa</w>": 677, "nanima</w>": 678, "nana</w>": 679, "z": 680, "naai,</w>": 681, "hiri</w>": 682, "september</w>": 683, "biɛla</w>": 684, "naɣila</w>": 685, "ŋɔ": 686, "ɣ’</w>": 687, "viɛ": 688, "naa,</w>": 689, "mɔ": 690, "district,</w>": 691, "in": 692, "5</w>": 693, "nkrumah</w>": 694, "karimbisarinsi</w>": 695, "saɣiti</w>": 696, "ga</w>": 697, "adiini</w>": 698, "zaŋ": 699, "kari</w>": 700, "nabihi</w>": 701, "nin": 702, "bala</w>": 703, "zaɣi</w>": 704, "paaki</w>": 705, "to": 706, "tin": 707, "suŋ</w>": 708, "dinzuɣu</w>": 709, "kɔŋ</w>": 710, "kpini</w>": 711, "nyâ</w>": 712, "n-tiri</w>": 713, "tiŋsi</w>": 714, "zuŋɔ</w>": 715, "bali</w>": 716, "uni": 717, "bɔ</w>": 718, "nama</w>": 719, "zoolanyili,</w>": 720, "binkɔbiri</w>": 721, "dali,</w>": 722, "zaɣisi</w>": 723, "vooti</w>": 724, "committee</w>": 725, "'</w>": 726, "alikaale</w>": 727, "bila</w>": 728, "kura</w>": 729, "nyari</w>": 730, "yɛla.</w>": 731, "dimbɔŋɔ</w>": 732, "de</w>": 733, "kumbungu,</w>": 734, "cape</w>": 735, "bindira</w>": 736, "pukpariba</w>": 737, "buta</w>": 738, "),</w>": 739, "shɛli,</w>": 740, "amaa,</w>": 741, "buɣisi</w>": 742, "yaɣili,</w>": 743, "na": 744, "tahiri</w>": 745, "sabiri</w>": 746, "dundɔŋ</w>": 747, "paɣ’</w>": 748, "on</w>": 749, "ɣ": 750, "abu</w>": 751, "satani,</w>": 752, "2017</w>": 753, "filim</w>": 754, "limo,</w>": 755, "dɔ": 756, "november</w>": 757, "salindi</w>": 758, "binyɛra</w>": 759, "dolodolo</w>": 760, "napagyili,</w>": 761, "w": 762, "sheeni,</w>": 763, "nawuni,</w>": 764, "taɣiri</w>": 765, "kushibu,</w>": 766, "canada</w>": 767, "gbuluŋ</w>": 768, "zangbalun,</w>": 769, "sim</w>": 770, "shεŋa</w>": 771, "silimiin-goli</w>": 772, "pihinu</w>": 773, "gbullung</w>": 774, "century</w>": 775, "galazoli,</w>": 776, "tɔ</w>": 777, "logshegu,</w>": 778, "ai</w>": 779, "dallung,</w>": 780, "gbullung,</w>": 781, "gbulung,</w>": 782, "kunkulung,</w>": 783, "ngbanang,</w>": 784, "singa.</w>": 785, "yaring,</w>": 786, "lɔ": 787, "yɔ": 788, "l</w>": 789, "3</w>": 790, "suma</w>": 791, "april</w>": 792, "baa</w>": 793, "yuŋ</w>": 794, "cheshegu,</w>": 795, "nyarizegu,</w>": 796, "karinzoŋ</w>": 797, "yâli</w>": 798, "zaa,</w>": 799, "dinyokpaligu,</w>": 800, "kobigi</w>": 801, "mbanaayili,</w>": 802, "karimbanima</w>": 803, "tulim</w>": 804, "assemble</w>": 805, "bolli</w>": 806, "andani</w>": 807, "yaan-naa</w>": 808, "bukaata</w>": 809, "mu": 810, "yɛligu</w>": 811, "adam</w>": 812, "silimboma,</w>": 813, "zuɣulan</w>": 814, "ar": 815, "tiåa</w>": 816, "al": 817, "b</w>": 818, "lugshegu,</w>": 819, "ghana,</w>": 820, "cheyohi,</w>": 821, "dila</w>": 822, "zahim</w>": 823, "th</w>": 824, "nanumba</w>": 825, "digu,</w>": 826, "dr</w>": 827, "”</w>": 828, "zalisi</w>": 829, "nira.</w>": 830, "ŋma</w>": 831, "eastern</w>": 832, "dam</w>": 833, "law</w>": 834, "baŋda</w>": 835, "tiŋ’</w>": 836, "yɔɣu</w>": 837, "luɣ’</w>": 838, "min</w>": 839, "lihiri</w>": 840, "tiŋ'": 841, "tamali</w>": 842, "buntaansi,</w>": 843, "ayobu</w>": 844, "anii</w>": 845, "â": 846, "yɛlimaŋli</w>": 847, "savelugu</w>": 848, "200": 849, "y</w>": 850, "naanyi</w>": 851, "andunia</w>": 852, "nimaani</w>": 853, "no2,</w>": 854, "biεhigu</w>": 855, "ʒiɛ": 856, "naya</w>": 857, "gingaani.</w>": 858, "accra</w>": 859, "bol'ŋmɛri</w>": 860, "kpɛ</w>": 861, "damba</w>": 862, "buku</w>": 863, "go": 864, "baɣa</w>": 865, "zɔŋ</w>": 866, "shɛm,</w>": 867, "kpɛ": 868, "cha": 869, "min’</w>": 870, "state</w>": 871, "maali</w>": 872, "nwogu,</w>": 873, "shɛb’</w>": 874, "league</w>": 875, "tiŋgbana</w>": 876, "biɛri</w>": 877, "wɔ": 878, "yaɣili.</w>": 879, "wikipedia</w>": 880, "sanaa</w>": 881, "coast</w>": 882, "climate</w>": 883, "de": 884, "soojanima</w>": 885, "teeku</w>": 886, "re": 887, "mills</w>": 888, "suuri</w>": 889, "baŋdiba</w>": 890, "dolo</w>": 891, "dɔɣim</w>": 892, "/": 893, "dabba</w>": 894, "ʒe</w>": 895, "nyaŋ</w>": 896, "zo": 897, "yaha</w>": 898, "city</w>": 899, "v": 900, "chihiri</w>": 901, "vu": 902, "sɔŋdi</w>": 903, "gahim</w>": 904, "institute</w>": 905, "din": 906, "suhi</w>": 907, "ŋmaai</w>": 908, "ta</w>": 909, "ta": 910, "ŋmɛbu</w>": 911, "gbaagi</w>": 912, "yâ": 913, "ppp</w>": 914, "anabi</w>": 915, "guli</w>": 916, "le": 917, "gban": 918, "suurili</w>": 919, "real</w>": 920, "baŋsim.</w>": 921, "york</w>": 922, "lɛ": 923, "so’</w>": 924, "å</w>": 925, "fourth</w>": 926, "2008</w>": 927, "2009</w>": 928, "kpaŋsiri</w>": 929, "gbaabu</w>": 930, "ce</w>": 931, "yim</w>": 932, "yisa</w>": 933, "nyɛvuli</w>": 934, "g</w>": 935, "shiri</w>": 936, "kpam</w>": 937, "ninkura</w>": 938, "bia.</w>": 939, "mohammed</w>": 940, "åa</w>": 941, "2004</w>": 942, "too</w>": 943, "bahigu</w>": 944, "ninsala</w>": 945, "pina</w>": 946, "daadama</w>": 947, "nya": 948, "ʒim</w>": 949, "fuu.</w>": 950, "nayili</w>": 951, "yaha,</w>": 952, "paɣi</w>": 953, "club</w>": 954, "maŋsulunsi</w>": 955, "yo": 956, "n-gari</w>": 957, "paagi</w>": 958, "general</w>": 959, "sɔɣi</w>": 960, "20</w>": 961, "j": 962, "no1,</w>": 963, "no3,</w>": 964, "nawunni,</w>": 965, "dalun-bihinaayili,</w>": 966, "dalun-kukuo,</w>": 967, "dimanzugu,</w>": 968, "dinyokalgu,</w>": 969, "ganvilga,</w>": 970, "ganvuliga,</w>": 971, "gbanjogla,</w>": 972, "gbanzogu-kukuo,</w>": 973, "gbugli,</w>": 974, "nyɔriŋ,</w>": 975, "gbullung-bihinaayili,</w>": 976, "gingaani-yizehi,</w>": 977, "kumbungu-kukuo,</w>": 978, "kumbungu-yipelnaayili,</w>": 979, "kumbungu-zoolanyili,</w>": 980, "mbnaayili,</w>": 981, "b’</w>": 982, "namdu-katakata,</w>": 983, "namdu-wahini.</w>": 984, "nyerizigu,</w>": 985, "q109930828,</w>": 986, "saakuba,</w>": 987, "zaɣa</w>": 988, "shaduwa,</w>": 989, "sheigbeni,</w>": 990, "shiegbeni,</w>": 991, "shieni,</w>": 992, "shiigbuni,</w>": 993, "yipelgu,</w>": 994, "zangbalung-bihi,</w>": 995, "yipiligu,</w>": 996, "zugu-dabogni.</w>": 997, "bɔhim</w>": 998, "gbansabila</w>": 999, "development</w>": 1000, "yo</w>": 1001, "bɛla</w>": 1002, "nina</w>": 1003, "baŋ": 1004, "mɔri</w>": 1005, "n-nya</w>": 1006, "laasabu</w>": 1007, "musulinsi</w>": 1008, "2013</w>": 1009, "2019</w>": 1010, "palo</w>": 1011, "chi": 1012, "public</w>": 1013, "tindana</w>": 1014, "nudirigu</w>": 1015, "ʒi": 1016, "ɣiri</w>": 1017, "dɔriti</w>": 1018, "te": 1019, "leegi</w>": 1020, "management</w>": 1021, "1,</w>": 1022, "tabi</w>": 1023, "7</w>": 1024, "dagbanli</w>": 1025, "mɔɣu</w>": 1026, "chandi</w>": 1027, "al</w>": 1028, "2018</w>": 1029, "kɔbigi</w>": 1030, "2": 1031, "4</w>": 1032, "laɣiri</w>": 1033, "niŋsim</w>": 1034, "atta</w>": 1035, "tiŋ'titali,</w>": 1036, "m-mali</w>": 1037, "bank</w>": 1038, "saha.</w>": 1039, "mɛbu</w>": 1040, "chaŋla</w>": 1041, ",di</w>": 1042, "6</w>": 1043, "states": 1044, "4": 1045, "doni</w>": 1046, "–</w>": 1047, "bili</w>": 1048, "jɛmbu</w>": 1049, "kpee</w>": 1050, "yakubu</w>": 1051, "lim</w>": 1052, "co": 1053, "m-pahi</w>": 1054, "labisi</w>": 1055, "waa</w>": 1056, "wuhirila</w>": 1057, "jilima</w>": 1058, "states</w>": 1059, "kpɛhi</w>": 1060, "2017,</w>": 1061, "vi": 1062, "heritage</w>": 1063, "shili</w>": 1064, "bԑ</w>": 1065, "1": 1066, "sɔ": 1067, "pii": 1068, "galisim</w>": 1069, "le</w>": 1070, "go</w>": 1071, "n-nyɛla</w>": 1072, "r’</w>": 1073, "lahabaya</w>": 1074, "mr</w>": 1075, "subu</w>": 1076, "chi</w>": 1077, "ninsalinima</w>": 1078, "mii</w>": 1079, "luɣi</w>": 1080, "komitii</w>": 1081, "mabiligu</w>": 1082, "biri</w>": 1083, "gbibi</w>": 1084, "bɔhi</w>": 1085, "kɔbiga</w>": 1086, "karim": 1087, "napɔŋ</w>": 1088, "pahi.</w>": 1089, "ŋmɛ": 1090, "ga": 1091, "banki</w>": 1092, "bola</w>": 1093, "california</w>": 1094, "upper</w>": 1095, "po": 1096, "tingbana</w>": 1097, "anashaara</w>": 1098, "pilila</w>": 1099, "pumpɔŋɔ</w>": 1100, "zɔri</w>": 1101, "taali</w>": 1102, "awards</w>": 1103, "nyaaŋa.</w>": 1104, "soŋ</w>": 1105, "mo": 1106, "n-chaŋ</w>": 1107, "ninsali</w>": 1108, "primary</w>": 1109, "niŋbu</w>": 1110, "zan</w>": 1111, "palmyra</w>": 1112, "british</w>": 1113, "volta</w>": 1114, "us</w>": 1115, "training</w>": 1116, "amiliya</w>": 1117, "19": 1118, "êisi</w>": 1119, "9": 1120, "n-wuhiri</w>": 1121, "r</w>": 1122, "n-nyâ</w>": 1123, "tima</w>": 1124, "yiŋ</w>": 1125, "arts</w>": 1126, "tuma,</w>": 1127, "higu</w>": 1128, "yaɣali</w>": 1129, "duniya</w>": 1130, "2014</w>": 1131, "yendi</w>": 1132, "karibu</w>": 1133, "poi</w>": 1134, "kam.</w>": 1135, "ba,</w>": 1136, "10</w>": 1137, "balli</w>": 1138, "ban": 1139, "biɛlim</w>": 1140, "fu": 1141, "0": 1142, "gubu</w>": 1143, "wulinluhili</w>": 1144, "nyuri</w>": 1145, "chaå</w>": 1146, "n-yi</w>": 1147, "ya,</w>": 1148, "st</w>": 1149, "al-": 1150, "ɣisi</w>": 1151, "chihi</w>": 1152, "laɣi</w>": 1153, "kari": 1154, "lo": 1155, "bachelor</w>": 1156, "kahigi</w>": 1157, "karaga</w>": 1158, "business</w>": 1159, "jiŋli</w>": 1160, "ninvu": 1161, "nima.</w>": 1162, "kuɣa</w>": 1163, "canada,</w>": 1164, "tiŋ'shɛli</w>": 1165, "’": 1166, "tobu</w>": 1167, "nyu</w>": 1168, "jɛ": 1169, "n-yɛn</w>": 1170, "deegi</w>": 1171, "ashibiti</w>": 1172, "kpɛrigu</w>": 1173, "she</w>": 1174, "cup</w>": 1175, "shikurubihi</w>": 1176, "sɔŋsim</w>": 1177, "kpaɣiri</w>": 1178, "ê": 1179, "zooya</w>": 1180, "yu</w>": 1181, "kalinsi</w>": 1182, "looya</w>": 1183, "nuhi</w>": 1184, "yɛtɔɣa</w>": 1185, "executive</w>": 1186, "tooni.</w>": 1187, "saɣiri</w>": 1188, "council</w>": 1189, "sunsuuni.</w>": 1190, "hankali</w>": 1191, "sheei</w>": 1192, "nyin’</w>": 1193, "2015</w>": 1194, "wɔbigi</w>": 1195, "chira</w>": 1196, "neei</w>": 1197, "administration</w>": 1198, "roman</w>": 1199, "jina</w>": 1200, "jintori</w>": 1201, "vari</w>": 1202, "nyɔ": 1203, "sh": 1204, "p</w>": 1205, "bɔbu</w>": 1206, "chihibu</w>": 1207, "ma,</w>": 1208, "zaashee</w>": 1209, "baŋdi</w>": 1210, "mi,</w>": 1211, "tolon</w>": 1212, "shɛhirili</w>": 1213, "ch": 1214, "buni</w>": 1215, "bi’</w>": 1216, "dɔɣila</w>": 1217, "shee.</w>": 1218, "2010</w>": 1219, "ŋu": 1220, "ne": 1221, "silimiingoli</w>": 1222, "fifa</w>": 1223, "naa.</w>": 1224, "nyaêisi</w>": 1225, "bachi</w>": 1226, "tin’</w>": 1227, "wumsi</w>": 1228, "se": 1229, "yεn</w>": 1230, "h’</w>": 1231, "lɛbiginsim</w>": 1232, "pukparilim</w>": 1233, "zaŋmi</w>": 1234, "2000</w>": 1235, "yoli,</w>": 1236, "deputy</w>": 1237, "gbɔŋ</w>": 1238, "yili.</w>": 1239, "akufo-addo</w>": 1240, "laɣinsi</w>": 1241, "kpa": 1242, "joseph</w>": 1243, "zoo": 1244, "'s</w>": 1245, "unesco</w>": 1246, "dalim</w>": 1247, "zi": 1248, "nyɛri</w>": 1249, "sani,</w>": 1250, "yuri</w>": 1251, "nyala</w>": 1252, "5": 1253, "8": 1254, "too": 1255, "mba</w>": 1256, "2020,</w>": 1257, "mali": 1258, "votes)</w>": 1259, "n-zaŋti</w>": 1260, "america</w>": 1261, "yiko</w>": 1262, "\",</w>": 1263, "ŋun’</w>": 1264, "ɣili</w>": 1265, "chief</w>": 1266, "ra.</w>": 1267, "pɔɣu</w>": 1268, "yɛlli</w>": 1269, "mensah</w>": 1270, "metropolitan</w>": 1271, "con": 1272, "kasiɣiriba</w>": 1273, "mɔɣili</w>": 1274, "ô": 1275, "tuduu</w>": 1276, "tuun’</w>": 1277, "noliwuni</w>": 1278, "tumbu</w>": 1279, "or</w>": 1280, "bari</w>": 1281, "daba</w>": 1282, "bahi.</w>": 1283, "hi,</w>": 1284, "alhassan</w>": 1285, "kpɛm</w>": 1286, "kpari</w>": 1287, "ʒia</w>": 1288, "viɛla</w>": 1289, "kumbungu-": 1290, "yu’</w>": 1291, "tô": 1292, "åun</w>": 1293, "yawɛ</w>": 1294, "ro": 1295, "tab’</w>": 1296, "as</w>": 1297, "yɔri</w>": 1298, "neesim</w>": 1299, "daɣiri</w>": 1300, "gbu": 1301, "diɛma</w>": 1302, "florida</w>": 1303, "dagbaŋ.</w>": 1304, "kootu</w>": 1305, "2021</w>": 1306, "ministry</w>": 1307, "tɔri</w>": 1308, "ga,</w>": 1309, "maasim</w>": 1310, "k</w>": 1311, "6": 1312, "biɛɣ'pishi</w>": 1313, "zoli</w>": 1314, "nir’</w>": 1315, "izraɛlnim’</w>": 1316, "nyela</w>": 1317, "health</w>": 1318, "best</w>": 1319, "yaba</w>": 1320, "puu</w>": 1321, "doɣi</w>": 1322, "!</w>": 1323, "''": 1324, "napaɣa</w>": 1325, "niŋla</w>": 1326, "pirigili</w>": 1327, "un": 1328, "bakɔi</w>": 1329, "baligi</w>": 1330, "laamba</w>": 1331, "ankara</w>": 1332, "gama</w>": 1333, "nor": 1334, "nam": 1335, "mɛ": 1336, "ndc</w>": 1337, "jinaduu</w>": 1338, "ε": 1339, "tuya</w>": 1340, "massachusetts</w>": 1341, "pubu</w>": 1342, "man</w>": 1343, "kurimbuni</w>": 1344, "team</w>": 1345, "gi": 1346, "ʒɛ": 1347, "1992</w>": 1348, "london</w>": 1349, "deeri</w>": 1350, "daabilim</w>": 1351, "luɣili</w>": 1352, "maŋmaŋa</w>": 1353, "dim</w>": 1354, "bin’</w>": 1355, "ʒii</w>": 1356, "tɛha</w>": 1357, "tindaamba</w>": 1358, "kpɛriti</w>": 1359, "bô": 1360, "ii</w>": 1361, "bobu</w>": 1362, "awɔi</w>": 1363, "2021,</w>": 1364, "50</w>": 1365, "piibu-piibu</w>": 1366, "luhi</w>": 1367, "yɛltɔ": 1368, "ɣu.</w>": 1369, "199": 1370, "noli.</w>": 1371, "college,</w>": 1372, "sôå</w>": 1373, "teei</w>": 1374, "namatεri</w>": 1375, "people's</w>": 1376, "am</w>": 1377, "che": 1378, "afa</w>": 1379, "zabili</w>": 1380, "en": 1381, "wuni</w>": 1382, "salima.</w>": 1383, "ty</w>": 1384, "soli.</w>": 1385, "nuzaa</w>": 1386, "wuhibu</w>": 1387, "yɛda</w>": 1388, "ʒilɛli</w>": 1389, "2005</w>": 1390, "nyɛbu</w>": 1391, "biɛɣ'pia</w>": 1392, "2007</w>": 1393, "at</w>": 1394, "kadama</w>": 1395, "tariga</w>": 1396, "n-nyâ": 1397, "shâm</w>": 1398, "ye</w>": 1399, "3": 1400, "ninvuɣ'</w>": 1401, "technology</w>": 1402, "gala</w>": 1403, "mar": 1404, "ve</w>": 1405, "vootibu</w>": 1406, "lɛm</w>": 1407, "gooni</w>": 1408, "jintɔ": 1409, "kuriti</w>": 1410, "tingban</w>": 1411, "sheli</w>": 1412, "ʒili</w>": 1413, "ayi,</w>": 1414, "mi.</w>": 1415, "illinois</w>": 1416, "fi": 1417, "bɔbigu</w>": 1418, "wa": 1419, "on": 1420, "saɣisi</w>": 1421, "gan": 1422, "china</w>": 1423, "m.</w>": 1424, "nyin</w>": 1425, "es</w>": 1426, "te</w>": 1427, "shihi</w>": 1428, "dahin</w>": 1429, "na’</w>": 1430, "kadi</w>": 1431, "kpaŋmaŋ</w>": 1432, "zahimbu</w>": 1433, "bangsim</w>": 1434, "chin": 1435, "simsi</w>": 1436, "yirina</w>": 1437, "2012,</w>": 1438, "nuuni</w>": 1439, "tuuni</w>": 1440, "yihiri</w>": 1441, "nima,</w>": 1442, "2019,</w>": 1443, "million</w>": 1444, "siɣi</w>": 1445, "paɣa.</w>": 1446, "wurim</w>": 1447, "2,</w>": 1448, "vuhim</w>": 1449, "daansi</w>": 1450, "yɛl’</w>": 1451, "taba,</w>": 1452, "tuhiri</w>": 1453, "noo</w>": 1454, "lun": 1455, "jɔ": 1456, "karimbihi</w>": 1457, "kpani</w>": 1458, "mion</w>": 1459, "shε": 1460, "niŋgbuna</w>": 1461, "dolila</w>": 1462, "va</w>": 1463, "alizama</w>": 1464, "yooi</w>": 1465, "puhibu</w>": 1466, "toondana</w>": 1467, "wuhirimi</w>": 1468, "2006</w>": 1469, "kpaŋmaŋa</w>": 1470, "guri</w>": 1471, "rawlings</w>": 1472, "him</w>": 1473, "loori</w>": 1474, "tiŋduya</w>": 1475, "paul</w>": 1476, "diba</w>": 1477, "chɛri</w>": 1478, "dalun-": 1479, "gindi</w>": 1480, "ex": 1481, "alhaji</w>": 1482, "addo</w>": 1483, "betis.</w>": 1484, "suhupiɛlli</w>": 1485, "nimdi</w>": 1486, "deebu</w>": 1487, "no</w>": 1488, "gbahi</w>": 1489, "maŋsulinsi</w>": 1490, "fɔŋ</w>": 1491, "sara</w>": 1492, "ɣ'": 1493, "zaɣ'": 1494, "peter</w>": 1495, "er": 1496, "2014,</w>": 1497, "ayi.</w>": 1498, "tuu": 1499, "zabiri</w>": 1500, "kalin": 1501, "kpaɣi</w>": 1502, "198": 1503, "bilim</w>": 1504, "labina</w>": 1505, "tum": 1506, "yemen</w>": 1507, "ci": 1508, "san": 1509, "ji": 1510, "ary</w>": 1511, "zinli</w>": 1512, "kpala</w>": 1513, "kabiri</w>": 1514, "kɔbigu</w>": 1515, "wikimedia</w>": 1516, "dɔri</w>": 1517, "wari</w>": 1518, "bu.</w>": 1519, "suhuri</w>": 1520, "bani</w>": 1521, "shee,</w>": 1522, "minista</w>": 1523, "nyu": 1524, "kompini</w>": 1525, "education,</w>": 1526, "laa</w>": 1527, "gahindili</w>": 1528, "biŋ": 1529, "1996</w>": 1530, "yuui</w>": 1531, "yolisim</w>": 1532, "nɔ": 1533, "director</w>": 1534, "maligu</w>": 1535, "school,</w>": 1536, "buɣili</w>": 1537, "gahinda</w>": 1538, "zaɣ'</w>": 1539, "nanton</w>": 1540, "buɣa</w>": 1541, "sinii</w>": 1542, "zim</w>": 1543, "wula</w>": 1544, "booi</w>": 1545, "zanti</w>": 1546, "zabzugu</w>": 1547, "region,ghana</w>": 1548, "french</w>": 1549, "zoola</w>": 1550, "saŋmarisi</w>": 1551, "zaya</w>": 1552, "h</w>": 1553, "yɛm</w>": 1554, "m-bo</w>": 1555, "yε": 1556, "gbahiri</w>": 1557, "kpatindarinsi</w>": 1558, "waɣilim</w>": 1559, "convention</w>": 1560, "ha": 1561, "chan</w>": 1562, "zaŋli</w>": 1563, "naayili,</w>": 1564, "level</w>": 1565, "tɛ": 1566, "kani.</w>": 1567, "maŋ": 1568, "limited</w>": 1569, "7": 1570, "ted</w>": 1571, "suhudoo</w>": 1572, "minisita</w>": 1573, "ijip": 1574, "spain</w>": 1575, "yâliya</w>": 1576, "dali.</w>": 1577, "laɣ'baligu</w>": 1578, "medical</w>": 1579, "n-lahi</w>": 1580, "social</w>": 1581, "2013,</w>": 1582, "kpaŋdi</w>": 1583, "bihinaayili,</w>": 1584, "kofi</w>": 1585, "la)</w>": 1586, "yɛltɔɣili</w>": 1587, "el</w>": 1588, "zuɣuri</w>": 1589, "ber</w>": 1590, "dabili</w>": 1591, "year</w>": 1592, "ro</w>": 1593, "kom.</w>": 1594, "sabila</w>": 1595, "2018,</w>": 1596, "kasi</w>": 1597, "faashee</w>": 1598, "lunsi</w>": 1599, "viɛlli</w>": 1600, "mohi</w>": 1601, "ŋmaligi</w>": 1602, "tibili</w>": 1603, "vi</w>": 1604, "8</w>": 1605, "kamaata</w>": 1606, "bol'ŋmɛra</w>": 1607, "kuɣ</w>": 1608, "ger": 1609, "ashili</w>": 1610, "binshɛŋa</w>": 1611, "region.</w>": 1612, "ninvuɣi</w>": 1613, "man": 1614, "bindiri</w>": 1615, "sambani</w>": 1616, "tarisi</w>": 1617, "wahala</w>": 1618, "2015,</w>": 1619, "nations</w>": 1620, "minii</w>": 1621, "bɔli</w>": 1622, "bindi</w>": 1623, "ali": 1624, "gbaari</w>": 1625, "nyɛla,</w>": 1626, "lin": 1627, "park</w>": 1628, "yaha.</w>": 1629, "nyԑla</w>": 1630, "yɛli,</w>": 1631, "f</w>": 1632, "3,</w>": 1633, "palmyrene</w>": 1634, "m,</w>": 1635, "tibu</w>": 1636, "pohim</w>": 1637, "muɣisigu</w>": 1638, "yiŋa.</w>": 1639, "album</w>": 1640, "gbi</w>": 1641, "m-bala</w>": 1642, "sala</w>": 1643, "rila</w>": 1644, "suhu": 1645, "q": 1646, "ad": 1647, "piligu,</w>": 1648, "‘": 1649, "paari</w>": 1650, "bun": 1651, "yurilim</w>": 1652, "ʒin</w>": 1653, "bipuɣinsi</w>": 1654, "regional</w>": 1655, "day</w>": 1656, "salinima</w>": 1657, "ʒiya</w>": 1658, "alaafei</w>": 1659, "dɔro</w>": 1660, "zami</w>": 1661, "kastili</w>": 1662, "ad</w>": 1663, "cinii</w>": 1664, "nyâla,</w>": 1665, "kpamli</w>": 1666, "yuuni,</w>": 1667, "m-pa</w>": 1668, "nira,</w>": 1669, "sabira</w>": 1670, "kpana</w>": 1671, "company</w>": 1672, "yiŋ’</w>": 1673, "kuɣisi</w>": 1674, "nyɛli</w>": 1675, "ŋ,</w>": 1676, "ontario</w>": 1677, "government</w>": 1678, "ah</w>": 1679, "kɔri</w>": 1680, "va": 1681, "fa": 1682, "shahira</w>": 1683, ")": 1684, "pisopɔin</w>": 1685, "tumi</w>": 1686, "bahiri</w>": 1687, "namtɛri</w>": 1688, "paya</w>": 1689, "dira</w>": 1690, "ani</w>": 1691, "yiini</w>": 1692, "n-kpe</w>": 1693, "m-bala.</w>": 1694, "zanjina</w>": 1695, "16</w>": 1696, "ha,</w>": 1697, "gold</w>": 1698, "(npp)</w>": 1699, "2022</w>": 1700, "nyɔri</w>": 1701, "kenya</w>": 1702, "zuɣu": 1703, "finance</w>": 1704, "bidibisi</w>": 1705, "soŋdi</w>": 1706, "pihiyɔbu</w>": 1707, "gungobili</w>": 1708, "wain</w>": 1709, "ŋmɛra</w>": 1710, "bu,</w>": 1711, "tumo</w>": 1712, "bindiri'</w>": 1713, "kingdom</w>": 1714, "ʒee</w>": 1715, "dabisa</w>": 1716, "ghana)</w>": 1717, "niŋmi</w>": 1718, "group</w>": 1719, "pirigi</w>": 1720, "kam,</w>": 1721, "sunsuuni,</w>": 1722, "tuuli,</w>": 1723, "tiba</w>": 1724, "she": 1725, "des</w>": 1726, "piri</w>": 1727, "riba</w>": 1728, "suhiri</w>": 1729, "npp</w>": 1730, "pihi</w>": 1731, "kuni</w>": 1732, "asiba</w>": 1733, "100</w>": 1734, "ca</w>": 1735, "tingbanni</w>": 1736, "service</w>": 1737, "wumdi</w>": 1738, "tamale,</w>": 1739, "n-</w>": 1740, "duɣu</w>": 1741, "ha.</w>": 1742, "yaanima</w>": 1743, "gba.</w>": 1744, "so.</w>": 1745, "nyɛvili</w>": 1746, "sɔŋ": 1747, "ŋmari</w>": 1748, "tirisi</w>": 1749, "bihim</w>": 1750, "suri</w>": 1751, "tiŋgban'</w>": 1752, "moli</w>": 1753, "toli</w>": 1754, "(ndc)</w>": 1755, "l’</w>": 1756, "waɣi</w>": 1757, "ga.</w>": 1758, "izraɛl</w>": 1759, "u,</w>": 1760, "land</w>": 1761, "yaɣ’</w>": 1762, "saɣimbu</w>": 1763, "anduniya</w>": 1764, "n-doli</w>": 1765, "15</w>": 1766, "21</w>": 1767, "chaŋ.</w>": 1768, "yâltôêa</w>": 1769, "tin</w>": 1770, "assembly</w>": 1771, "2011</w>": 1772, "ɣu,</w>": 1773, "zuu</w>": 1774, "milinsi</w>": 1775, "sham</w>": 1776, "dunoli</w>": 1777, "yibu</w>": 1778, "ŋaha</w>": 1779, "binniɛma</w>": 1780, "laɣifu</w>": 1781, "beni.</w>": 1782, "gahinda.</w>": 1783, "wɔbigu</w>": 1784, "&</w>": 1785, "farigu</w>": 1786, "franc</w>": 1787, "ridge</w>": 1788, "laɣindi</w>": 1789, "pihinii</w>": 1790, "is</w>": 1791, "diploma</w>": 1792, "studies</w>": 1793, "dabiɛm</w>": 1794, "tiŋgban'shɛli</w>": 1795, "2016,</w>": 1796, "agi</w>": 1797, "boliŋmɛra</w>": 1798, "tɔɣisi</w>": 1799, "kpi.</w>": 1800, "vuri</w>": 1801, "ju": 1802, "ge</w>": 1803, "silimiin'</w>": 1804, "gali</w>": 1805, "jândi</w>": 1806, "n-nyɛ:</w>": 1807, "ana</w>": 1808, "sodoligu</w>": 1809, "arab</w>": 1810, "bɔbili</w>": 1811, "alobo</w>": 1812, "gbuni</w>": 1813, "bana</w>": 1814, "ja": 1815, "tampionlana</w>": 1816, "yɛltoɣa</w>": 1817, "tinduya</w>": 1818, "zone</w>": 1819, "zalikpana</w>": 1820, "by</w>": 1821, "so,</w>": 1822, "wala</w>": 1823, "aki</w>": 1824, "saboba</w>": 1825, "pahi,</w>": 1826, "wuhiya,</w>": 1827, "kɔm</w>": 1828, "middle</w>": 1829, "kani,</w>": 1830, "jin": 1831, "ba)</w>": 1832, "par": 1833, "chɛliya</w>": 1834, "music</w>": 1835, "zuêu,</w>": 1836, "wo": 1837, "—": 1838, "teeri</w>": 1839, "lahibaya</w>": 1840, "2001</w>": 1841, "empire</w>": 1842, "bohimbu</w>": 1843, "luro</w>": 1844, "ale</w>": 1845, "w</w>": 1846, "kalli</w>": 1847, "nyuli</w>": 1848, "zoya</w>": 1849, "fo": 1850, "ali</w>": 1851, "?</w>": 1852, "soo": 1853, "ra": 1854, "pooli</w>": 1855, "co</w>": 1856, "kumbuŋ</w>": 1857, "naabu</w>": 1858, "gɔri</w>": 1859, "nahingbana</w>": 1860, "niŋgbuŋ</w>": 1861, "daan'</w>": 1862, "alika": 1863, "luri</w>": 1864, "alikaali</w>": 1865, "dinzuɣu,</w>": 1866, "du’</w>": 1867, "ŋmahi</w>": 1868, "di.</w>": 1869, "ahafo</w>": 1870, "yinsi</w>": 1871, "piila</w>": 1872, "m-pili</w>": 1873, "yoli.</w>": 1874, "nɛ": 1875, "kpila</w>": 1876, "sariya</w>": 1877, "yiya</w>": 1878, "siyaayasa</w>": 1879, "labiri</w>": 1880, "von</w>": 1881, "river</w>": 1882, "bɔŋɔ</w>": 1883, "ne</w>": 1884, "mali:</w>": 1885, "kuŋ</w>": 1886, "ru": 1887, "bia,</w>": 1888, "baansi</w>": 1889, "ibrahim</w>": 1890, "kanna</w>": 1891, "maalibu</w>": 1892, "human</w>": 1893, "global</w>": 1894, "kumasi</w>": 1895, "zanduu</w>": 1896, "zoori</w>": 1897, "voli</w>": 1898, "american</w>": 1899, "salya</w>": 1900, "je": 1901, "musulinima</w>": 1902, "lɛbu</w>": 1903, "dalinli</w>": 1904, "zabi</w>": 1905, "maåa</w>": 1906, "(17)</w>": 1907, "5,</w>": 1908, "bidibiga</w>": 1909, "mal’</w>": 1910, "pu</w>": 1911, "v</w>": 1912, "dahi.</w>": 1913, "alaamu</w>": 1914, "yuun'</w>": 1915, "site</w>": 1916, "or": 1917, "patri": 1918, "dili</w>": 1919, "tohiri</w>": 1920, "cu": 1921, "niå": 1922, "nyε": 1923, "bomma</w>": 1924, "kabi</w>": 1925, "2022,</w>": 1926, "dini.</w>": 1927, "pani</w>": 1928, "seni": 1929, "biɛhagu</w>": 1930, "chɛli</w>": 1931, "david</w>": 1932, "nyina</w>": 1933, "board</w>": 1934, "bɔra</w>": 1935, "pula</w>": 1936, "10": 1937, "yimi</w>": 1938, "(kɔbigi</w>": 1939, "yεli</w>": 1940, "bunahi</w>": 1941, "yaɣiri</w>": 1942, "yuun’</w>": 1943, "tiŋgban’</w>": 1944, "kuliga</w>": 1945, "doya</w>": 1946, "kɔŋ": 1947, "deiri</w>": 1948, "award</w>": 1949, "(sagnarigu</w>": 1950, "bal'shɛli</w>": 1951, "salim</w>": 1952, "ŋ.</w>": 1953, "25</w>": 1954, "pro": 1955, "kuɣ’</w>": 1956, "ch</w>": 1957, "uefa</w>": 1958, "master</w>": 1959, "beni,</w>": 1960, "kpi": 1961, "kpɛrikpɛrita</w>": 1962, "tilahi</w>": 1963, "ratic</w>": 1964, ":": 1965, "12</w>": 1966, "union</w>": 1967, "european</w>": 1968, "ra,</w>": 1969, "haŋkali</w>": 1970, "dahinshɛli</w>": 1971, "taŋ": 1972, "dim": 1973, "luɣishɛli</w>": 1974, "ndi</w>": 1975, "ŋmaa</w>": 1976, "tatabo</w>": 1977, "uk</w>": 1978, "kuna</w>": 1979, "greater</w>": 1980, "karin": 1981, "garigi</w>": 1982, "biɛligu</w>": 1983, "laɣ'": 1984, "n-di</w>": 1985, "j</w>": 1986, "for": 1987, "community</w>": 1988, "bukpurugu</w>": 1989, "bara</w>": 1990, "namdu-": 1991, "virginia</w>": 1992, "ndan</w>": 1993, "ŋunkam</w>": 1994, "14</w>": 1995, "bua</w>": 1996, "n-nyɛ;</w>": 1997, "zoogi</w>": 1998, "pakopanda</w>": 1999, "tɛhi</w>": 2000, "balishɛli.</w>": 2001, "bachizaana</w>": 2002, "mabihi</w>": 2003, "wuntaŋ</w>": 2004, "zin": 2005, "maŋli</w>": 2006, "hi.</w>": 2007, "gbinni</w>": 2008, "with</w>": 2009, "bina</w>": 2010, "tiŋgbanni</w>": 2011, "kundinima</w>": 2012, "spain,": 2013, "(31</w>": 2014, "soya.</w>": 2015, "binnɛma</w>": 2016, "ib": 2017, "texas</w>": 2018, "binyɛ": 2019, "kan": 2020, "noonsi</w>": 2021, "2002</w>": 2022, "yaɣ'</w>": 2023, "chiha</w>": 2024, "michigan</w>": 2025, "daabihi</w>": 2026, "baligu</w>": 2027, "tuun</w>": 2028, "nigerian</w>": 2029, "seventh</w>": 2030, "koligu</w>": 2031, "(dachɛhi</w>": 2032, "kahi": 2033, "(46)</w>": 2034, "9</w>": 2035, "turi</w>": 2036, "masters</w>": 2037, "first</w>": 2038, "pakoya</w>": 2039, "samuel</w>": 2040, "dundɔŋ.</w>": 2041, "n-che</w>": 2042, "tankpaɣu</w>": 2043, "dagban’</w>": 2044, "yin’</w>": 2045, "democ": 2046, "kpeeni</w>": 2047, "zan": 2048, "yaai</w>": 2049, "officer</w>": 2050, "hiv</w>": 2051, "biε": 2052, "x": 2053, "yɛligi</w>": 2054, "tiligi</w>": 2055, "woligi</w>": 2056, "nahu</w>": 2057, "pirim</w>": 2058, "england</w>": 2059, "academy</w>": 2060, "n-zali</w>": 2061, "liga</w>": 2062, "bilichini</w>": 2063, "nyaandoliba</w>": 2064, "zuê": 2065, "ho</w>": 2066, "ti.</w>": 2067, "mahamadu</w>": 2068, "connecticut</w>": 2069, "zali.</w>": 2070, "bachinima</w>": 2071, "tɛhisuma</w>": 2072, "zaŋmiya</w>": 2073, "zinfa</w>": 2074, "dubu</w>": 2075, "karimmanima</w>": 2076, "osei</w>": 2077, "tabiri</w>": 2078, "taai</w>": 2079, "daadiini</w>": 2080, "sagbana</w>": 2081, "saɣindi</w>": 2082, "laɣiŋgu</w>": 2083, "kum": 2084, "tɔb’</w>": 2085, "24</w>": 2086, "gom": 2087, "ɣu": 2088, "ŋ-": 2089, "wa,</w>": 2090, "1990</w>": 2091, "biɛɣ'": 2092, "musa</w>": 2093, "fɔ": 2094, "nabia</w>": 2095, "nachimba</w>": 2096, "justice</w>": 2097, "ata.</w>": 2098, "n-wumisiri</w>": 2099, "paɣa,</w>": 2100, "wahu</w>": 2101, "chaŋmi</w>": 2102, "kpahi</w>": 2103, "ginga": 2104, "ver": 2105, "miriya</w>": 2106, "baɣisi</w>": 2107, "nyaa": 2108, "sulemana</w>": 2109, "dan</w>": 2110, "kpuɣila</w>": 2111, "11</w>": 2112, "kpiimba</w>": 2113, "yili,</w>": 2114, "kariti</w>": 2115, "yiɣi</w>": 2116, "dam": 2117, "1997</w>": 2118, "demonstration</w>": 2119, "naai.</w>": 2120, "kumsi</w>": 2121, "biɛli</w>": 2122, "po</w>": 2123, "do’</w>": 2124, "hospital</w>": 2125, "i.</w>": 2126, "oni</w>": 2127, "tuhili</w>": 2128, "luɣ'shɛli</w>": 2129, "samli</w>": 2130, "bɛhigu</w>": 2131, "kuru</w>": 2132, "states,</w>": 2133, "alibarika</w>": 2134, "shâba</w>": 2135, "pe": 2136, "dana</w>": 2137, "laɣibaligu</w>": 2138, "binkobiri</w>": 2139, "chini</w>": 2140, "nimaani.</w>": 2141, "municipality,</w>": 2142, "silimiinsi</w>": 2143, "ye": 2144, "cpp</w>": 2145, "zahindi</w>": 2146, "kpambala</w>": 2147, "pukpari</w>": 2148, "affairs</w>": 2149, "ter": 2150, "zoŋ</w>": 2151, "(new</w>": 2152, "lagos</w>": 2153, "kpu": 2154, "yɛtɔ": 2155, "yipel": 2156, "ʒiɛm</w>": 2157, "manager</w>": 2158, "karachi</w>": 2159, "z</w>": 2160, "me": 2161, "sochibisi</w>": 2162, "gbarigi</w>": 2163, "(bace),</w>": 2164, "(tace),</w>": 2165, "piiya</w>": 2166, "2008,</w>": 2167, "1970</w>": 2168, "port</w>": 2169, "piɛlli</w>": 2170, "duhi</w>": 2171, "daanfaani</w>": 2172, "yɛrila</w>": 2173, "tahima</w>": 2174, "st": 2175, "economic</w>": 2176, "ts</w>": 2177, "france</w>": 2178, "wi": 2179, "duni": 2180, "karimbanimakarimzɔŋ</w>": 2181, "dariza</w>": 2182, "sabi'sabira.</w>": 2183, "tabiibi</w>": 2184, "leela</w>": 2185, "kpɛna</w>": 2186, "nyee</w>": 2187, "hira</w>": 2188, "liri</w>": 2189, "anfooni</w>": 2190, "daai</w>": 2191, "shɛb</w>": 2192, "dabo": 2193, "soŋsi</w>": 2194, "kuɣili</w>": 2195, "n-ni</w>": 2196, "appiah</w>": 2197, "13</w>": 2198, "certificate</w>": 2199, "nye": 2200, "bilichina</w>": 2201, "zu</w>": 2202, "gballi</w>": 2203, "owusu</w>": 2204, "ŋa.</w>": 2205, "18</w>": 2206, "yâla</w>": 2207, "ko,</w>": 2208, "lɛbigi</w>": 2209, "adaka</w>": 2210, "chu": 2211, "data</w>": 2212, "zuɣulan'</w>": 2213, "shεm</w>": 2214, "30</w>": 2215, "san</w>": 2216, "vo</w>": 2217, "yɛlibɔra</w>": 2218, "s,</w>": 2219, "kɔhi</w>": 2220, "sana</w>": 2221, "vo": 2222, "be.</w>": 2223, "tɔbbihi</w>": 2224, "shitobu</w>": 2225, "shia</w>": 2226, "°c</w>": 2227, "(national</w>": 2228, "man’</w>": 2229, "yini,</w>": 2230, "er</w>": 2231, "n-su</w>": 2232, "lana.</w>": 2233, "bohim</w>": 2234, "da.</w>": 2235, "wuligibu</w>": 2236, "chɛmi</w>": 2237, "nwodu": 2238, "duɣi</w>": 2239, "”.</w>": 2240, "ninsalinim’</w>": 2241, "football</w>": 2242, "galim</w>": 2243, "southern</w>": 2244, "kwacha</w>": 2245, "1969</w>": 2246, "23</w>": 2247, "lli</w>": 2248, "sabili</w>": 2249, "nyɛmi</w>": 2250, "kulisi</w>": 2251, "yali</w>": 2252, "ct</w>": 2253, "dɔni</w>": 2254, "banima</w>": 2255, "ʒ": 2256, "22</w>": 2257, "viɛli</w>": 2258, "ŋga</w>": 2259, "dagbani.</w>": 2260, "niŋda</w>": 2261, "duli</w>": 2262, "kuhi</w>": 2263, "linjimanima</w>": 2264, "tini</w>": 2265, "dagbankpamba</w>": 2266, "jɛrigu</w>": 2267, "ama</w>": 2268, "“</w>": 2269, "binniɛŋ</w>": 2270, "pe</w>": 2271, "øini</w>": 2272, "lɔɣu</w>": 2273, "vili</w>": 2274, "bar": 2275, "syria</w>": 2276, "ata,</w>": 2277, "kumahi</w>": 2278, "alikauli</w>": 2279, "gu-": 2280, "am": 2281, "ki": 2282, "colorado</w>": 2283, "n-chɛ</w>": 2284, "nan": 2285, "tee": 2286, "bɔba</w>": 2287, "naawuni.</w>": 2288, "gbini</w>": 2289, "bono</w>": 2290, "baɣi</w>": 2291, "otic</w>": 2292, "nin</w>": 2293, "guŋ": 2294, "yari</w>": 2295, "dihitabili</w>": 2296, "dilana</w>": 2297, "tingban’</w>": 2298, "zuŋɔ.</w>": 2299, "kpaai</w>": 2300, "karuŋ</w>": 2301, "jam</w>": 2302, "ja</w>": 2303, "sil": 2304, "yaa-naa</w>": 2305, "nu</w>": 2306, "dauda</w>": 2307, "chana</w>": 2308, "uganda</w>": 2309, "lala,</w>": 2310, "c)</w>": 2311, "sɔŋsi</w>": 2312, "dooshee</w>": 2313, "nii</w>": 2314, "1979</w>": 2315, "8th</w>": 2316, "piiri</w>": 2317, "alabama</w>": 2318, "yɛlimuɣisira</w>": 2319, "george</w>": 2320, "ibn</w>": 2321, "ɣa.</w>": 2322, "war": 2323, "gbibu</w>": 2324, "na'</w>": 2325, "yɛlimaŋli,</w>": 2326, "sam": 2327, "sim": 2328, "house</w>": 2329, "ko’</w>": 2330, "1991</w>": 2331, "shigaari</w>": 2332, "puri</w>": 2333, "tinkpansi</w>": 2334, "duu,</w>": 2335, "kasiɣiritali</w>": 2336, "rights</w>": 2337, "ho": 2338, "gushegu</w>": 2339, "biɛɣu.</w>": 2340, "kparigu</w>": 2341, "10,</w>": 2342, "n-niŋdi</w>": 2343, "chaŋ": 2344, "munici": 2345, "timbuk": 2346, "s.</w>": 2347, "anim’</w>": 2348, "bira</w>": 2349, "hu": 2350, "biâ": 2351, "siɣisi</w>": 2352, "shɛŋa.</w>": 2353, "buka": 2354, "nyabu</w>": 2355, "taari": 2356, "x</w>": 2357, "tibi</w>": 2358, "naagi</w>": 2359, "suɣulo</w>": 2360, "emmanuel</w>": 2361, "kamani,</w>": 2362, "hili</w>": 2363, "mɔŋ</w>": 2364, "nyaɣisim</w>": 2365, "court</w>": 2366, "local</w>": 2367, "n-wuhi</w>": 2368, "pal</w>": 2369, "doo,</w>": 2370, "paɣiri</w>": 2371, "jo": 2372, "africa.</w>": 2373, "wuɣi</w>": 2374, "piɛri</w>": 2375, "duɣiri</w>": 2376, "niŋ,</w>": 2377, "pumpɔ": 2378, "ry</w>": 2379, "nye’</w>": 2380, "g,</w>": 2381, "nan</w>": 2382, "bi'</w>": 2383, "wulinpuhili</w>": 2384, "rigu</w>": 2385, "yiŋ": 2386, "fali</w>": 2387, "19</w>": 2388, "ville</w>": 2389, "champions</w>": 2390, "4th</w>": 2391, "mayaankalɛhi</w>": 2392, "wuligi</w>": 2393, "yiɣ'jam</w>": 2394, "197": 2395, "’s</w>": 2396, "silimiin-": 2397, "yεla</w>": 2398, "jersey</w>": 2399, "gabi</w>": 2400, "êu</w>": 2401, "barinanima</w>": 2402, "zuɣulana,</w>": 2403, "nyamma</w>": 2404, "niriba.</w>": 2405, "nanti</w>": 2406, "n-lee</w>": 2407, "yɛli": 2408, "kpi,</w>": 2409, "zoo</w>": 2410, "ʒiɛri</w>": 2411, "tuun'</w>": 2412, "lan": 2413, "janima</w>": 2414, "minti</w>": 2415, "chinchini</w>": 2416, "kpiɛriti</w>": 2417, "yɛltɔɣataɣamalisi.</w>": 2418, "dagbaŋ'na</w>": 2419, "naya-sankarayili(yendi)</w>": 2420, "siɣili</w>": 2421, "n-lɛhiri</w>": 2422, "yu'gahinda</w>": 2423, "jintɔriba</w>": 2424, "hibu</w>": 2425, "savulugu</w>": 2426, "member</w>": 2427, "bachiniŋda</w>": 2428, "binshɛ": 2429, "abdul</w>": 2430, "bihi.</w>": 2431, "gariba</w>": 2432, "cement</w>": 2433, "diba": 2434, "a)</w>": 2435, "sunsuni</w>": 2436, "oklahoma</w>": 2437, "karimbu</w>": 2438, "car": 2439, "vaaibu</w>": 2440, "ningbuna</w>": 2441, "rand</w>": 2442, "zuŋɔ,</w>": 2443, "churi</w>": 2444, "committee\"</w>": 2445, "''</w>": 2446, "gbeni,</w>": 2447, "zaba</w>": 2448, "studio</w>": 2449, "noya</w>": 2450, "yɛliya,</w>": 2451, "alikawli</w>": 2452, "evans</w>": 2453, "yaaŋa</w>": 2454, "28,</w>": 2455, "2003</w>": 2456, "party)</w>": 2457, "biɛhi</w>": 2458, "bɔhisi</w>": 2459, "tv</w>": 2460, "har": 2461, "ligu</w>": 2462, "gbaa</w>": 2463, "sulunsi</w>": 2464, "yom</w>": 2465, "tua</w>": 2466, "kufuor</w>": 2467, "n-tum</w>": 2468, "youth</w>": 2469, "kɔŋko</w>": 2470, "jɛma</w>": 2471, "dabisi</w>": 2472, "tan": 2473, "kpuɣiri</w>": 2474, "opoku</w>": 2475, "1980</w>": 2476, "egypt</w>": 2477, "asia.</w>": 2478, "ʒila</w>": 2479, "bc</w>": 2480, "27</w>": 2481, "gre": 2482, "columbia</w>": 2483, "loo": 2484, "zɔndi</w>": 2485, "ŋɔni</w>": 2486, "chirigi</w>": 2487, "black</w>": 2488, "congo</w>": 2489, "temple</w>": 2490, "yɛlimi</w>": 2491, "ԑ": 2492, "(state)</w>": 2493, "nabi</w>": 2494, "196": 2495, "m-pahila</w>": 2496, "e.</w>": 2497, "eni,</w>": 2498, "0</w>": 2499, "kɔba</w>": 2500, "anahi.</w>": 2501, "kpɛma.</w>": 2502, "tali,</w>": 2503, "piligu.</w>": 2504, "gu.</w>": 2505, "many</w>": 2506, "achimota</w>": 2507, "tô</w>": 2508, "sari": 2509, "yɛlim</w>": 2510, "gbahira</w>": 2511, "wahi</w>": 2512, "qu": 2513, "lab’</w>": 2514, "paris</w>": 2515, "pari</w>": 2516, "james</w>": 2517, "shɛhi</w>": 2518, "lake</w>": 2519, "shaŋa</w>": 2520, "fakari</w>": 2521, "kaleem</w>": 2522, "nangbanyini</w>": 2523, "batco</w>": 2524, "pola</w>": 2525, "kg/primary/jhs</w>": 2526, "\"deputy</w>": 2527, "afri": 2528, "tiŋtitali,di</w>": 2529, "lubu</w>": 2530, "al-</w>": 2531, "kpe": 2532, "2)</w>": 2533, "tom</w>": 2534, "vil": 2535, "damdi</w>": 2536, "ari</w>": 2537, "ʒiɛɣu</w>": 2538, "tariga.</w>": 2539, "king</w>": 2540, "salinda</w>": 2541, "laribu</w>": 2542, "din’</w>": 2543, "nema</w>": 2544, "inter": 2545, "kwaku</w>": 2546, "agyekum</w>": 2547, "tɔhigu</w>": 2548, "kun": 2549, "taɣada</w>": 2550, "masia</w>": 2551, "dɔɣiri</w>": 2552, "jɛŋ": 2553, "n-gili</w>": 2554, "yɛliŋ</w>": 2555, "kɔhiri</w>": 2556, "baɣiri</w>": 2557, "yaasa</w>": 2558, "as": 2559, "shikuru</w>": 2560, "(tatu),</w>": 2561, "winnebanima</w>": 2562, "energy</w>": 2563, "n-na</w>": 2564, "n-tam</w>": 2565, "pako": 2566, "pulini</w>": 2567, "muhammad</w>": 2568, "hu</w>": 2569, "naɣ’</w>": 2570, "1975</w>": 2571, "kpam": 2572, "fara</w>": 2573, "shinkaafa</w>": 2574, "binyara</w>": 2575, "arizichi</w>": 2576, "tɔɣisiri</w>": 2577, "shɛɣu</w>": 2578, "1999</w>": 2579, "baba</w>": 2580, "yino.</w>": 2581, "carolina</w>": 2582, "nahi</w>": 2583, "naba.</w>": 2584, "tiɣi</w>": 2585, "boliŋmɛri</w>": 2586, "laɣisi</w>": 2587, "ɛ</w>": 2588, "kariŋ</w>": 2589, "n-kuli</w>": 2590, "education(bɛ</w>": 2591, "piɛɣu</w>": 2592, "st),1944</w>": 2593, "asante</w>": 2594, "nim": 2595, "laɣi": 2596, "zama</w>": 2597, "wuntaŋ’</w>": 2598, "ko.</w>": 2599, "was</w>": 2600, "ri.</w>": 2601, "shei": 2602, "é": 2603, "1960</w>": 2604, "suuna</w>": 2605, "bɔlli</w>": 2606, "junior</w>": 2607, "ŋa,</w>": 2608, "luɣa</w>": 2609, "1993</w>": 2610, "nantoo</w>": 2611, "we": 2612, "ghana\"</w>": 2613, "congress)</w>": 2614, "mɔɣini</w>": 2615, "siminti</w>": 2616, "dollar</w>": 2617, "kpɛma,</w>": 2618, "sabiila</w>": 2619, "university,</w>": 2620, "bala.</w>": 2621, "yiriŋ</w>": 2622, "yaha!</w>": 2623, "kpiɔŋ</w>": 2624, "aku": 2625, "trade</w>": 2626, "kom,</w>": 2627, "duu.</w>": 2628, "daalaafee</w>": 2629, "buɣisiri</w>": 2630, "bɔɣili</w>": 2631, "nyɔɣu</w>": 2632, "ninvuɣ'so</w>": 2633, "master's</w>": 2634, "biɛhisi</w>": 2635, "kpaŋsibu</w>": 2636, "chibo</w>": 2637, "island</w>": 2638, "shadu": 2639, "gbuni,</w>": 2640, "ndaa</w>": 2641, "n-nyɛ.</w>": 2642, "dini,</w>": 2643, "baå</w>": 2644, "nimmohi</w>": 2645, "tooni,</w>": 2646, "ani-": 2647, "viɛnyɛla.</w>": 2648, "charles</w>": 2649, "(din</w>": 2650, "ala</w>": 2651, "mabia</w>": 2652, "ben": 2653, "les</w>": 2654, "viɛlim</w>": 2655, "cor": 2656, "alizanda</w>": 2657, "ɔŋ</w>": 2658, "gbe</w>": 2659, "je.</w>": 2660, "au": 2661, "°f)</w>": 2662, "saul</w>": 2663, "gban</w>": 2664, "tiŋzuɣu</w>": 2665, "2009,</w>": 2666, "bayana</w>": 2667, "kunduŋ</w>": 2668, "wali</w>": 2669, "change</w>": 2670, "water</w>": 2671, "n-diri</w>": 2672, "presbyterian</w>": 2673, "sabita</w>": 2674, "gɔɣu</w>": 2675, "(o</w>": 2676, "yɛla,</w>": 2677, "ve": 2678, "radio</w>": 2679, "centre</w>": 2680, "gumdi</w>": 2681, "bahigu,</w>": 2682, "dimi</w>": 2683, "dinar</w>": 2684, "rigi</w>": 2685, "gɔmnan-ti</w>": 2686, "diman": 2687, "great</w>": 2688, "so'</w>": 2689, "kadama,</w>": 2690, "maŋmaŋ</w>": 2691, "katakata,</w>": 2692, "18": 2693, "kpibu</w>": 2694, "yɔli</w>": 2695, "lala.</w>": 2696, "gbaŋ.</w>": 2697, "janu": 2698, "tumda</w>": 2699, "shɛbi</w>": 2700, "shikuru": 2701, "nyin'</w>": 2702, "distri": 2703, "dindali</w>": 2704, "foundation</w>": 2705, "jaŋa</w>": 2706, "gbanpiɛla</w>": 2707, "koŋ</w>": 2708, "church</w>": 2709, "buɣi</w>": 2710, "dɔr’</w>": 2711, "yihila</w>": 2712, "iv</w>": 2713, "n-nyε</w>": 2714, "kperi</w>": 2715, "shikuruti</w>": 2716, "zaani.</w>": 2717, "wabigu</w>": 2718, "kpiɣi</w>": 2719, "shahara</w>": 2720, "pedia</w>": 2721, "no’</w>": 2722, "kuku": 2723, "dakulo</w>": 2724, "yaa,</w>": 2725, "pɔbirisi</w>": 2726, "gaŋ": 2727, "min": 2728, "doriti</w>": 2729, "committee.</w>": 2730, "lem</w>": 2731, "1994</w>": 2732, "yɛtɔɣ’</w>": 2733, "miliyɔŋ</w>": 2734, "limam</w>": 2735, "komitti</w>": 2736, "shii": 2737, "ab": 2738, "authority</w>": 2739, "1988</w>": 2740, "methodist</w>": 2741, "kɔbishii</w>": 2742, "mili</w>": 2743, "gbali</w>": 2744, "ak": 2745, "biɛɣ'pihita</w>": 2746, "bɔhindi</w>": 2747, "cy</w>": 2748, "1998</w>": 2749, "maŋ'</w>": 2750, "bachibura</w>": 2751, "zaŋkpa</w>": 2752, "kpema</w>": 2753, "guinea</w>": 2754, "kikaa</w>": 2755, "–": 2756, "yilinima</w>": 2757, "luŋa</w>": 2758, "ama": 2759, "nangbankpeeni</w>": 2760, "piɛli</w>": 2761, "sima</w>": 2762, "tion</w>": 2763, "wun": 2764, "u.</w>": 2765, "vuhi</w>": 2766, "2010,</w>": 2767, "player</w>": 2768, "yuuni.</w>": 2769, "wɔɣilim</w>": 2770, "wahini.</w>": 2771, "bisi</w>": 2772, "tari</w>": 2773, "bɔrɔbɔ": 2774, "daniel</w>": 2775, "ohio</w>": 2776, "n-kani</w>": 2777, "legon</w>": 2778, "niɛma</w>": 2779, "zori</w>": 2780, "institu": 2781, "1967</w>": 2782, "nyԑ</w>": 2783, "canada,quebec</w>": 2784, "1995</w>": 2785, "17</w>": 2786, "gɔhi</w>": 2787, "re</w>": 2788, "juda</w>": 2789, "saamba</w>": 2790, "ʒɛri</w>": 2791, "muêisigu</w>": 2792, "anu.</w>": 2793, "1986</w>": 2794, "dee": 2795, "pihi": 2796, "wiki": 2797, "nanim</w>": 2798, "saint</w>": 2799, "paɣibu</w>": 2800, "dramani</w>": 2801, "bachelor's</w>": 2802, "nyɛvuya</w>": 2803, "taachi</w>": 2804, "sy": 2805, "du'</w>": 2806, "bii</w>": 2807, "yinim’</w>": 2808, "nyaanga</w>": 2809, "jɛndila</w>": 2810, "dahi</w>": 2811, "ŋmantambo</w>": 2812, "shɛŋa,</w>": 2813, "jo</w>": 2814, "culture</w>": 2815, "supreme</w>": 2816, "yaakubu</w>": 2817, "research</w>": 2818, "mar</w>": 2819, "birigi</w>": 2820, "dooni</w>": 2821, "gbanzo": 2822, "baŋmi</w>": 2823, "basic</w>": 2824, "cho": 2825, "200</w>": 2826, "kukoli</w>": 2827, "ninvuɣ'shɛba</w>": 2828, "dabsili</w>": 2829, "yaɣli</w>": 2830, "waɣila</w>": 2831, "da,</w>": 2832, "gahi</w>": 2833, "wulimpuhili</w>": 2834, "m-booni</w>": 2835, "niŋ.</w>": 2836, "ko'</w>": 2837, "kpaŋa</w>": 2838, "buri</w>": 2839, "nollywood</w>": 2840, "tumtumdiba</w>": 2841, "akim</w>": 2842, "dube</w>": 2843, "economics</w>": 2844, "dinyokal": 2845, "binkura</w>": 2846, "dau": 2847, "ze": 2848, "ction</w>": 2849, "28</w>": 2850, "islamic</w>": 2851, "taali.</w>": 2852, "nyuɣu</w>": 2853, "gbaliŋ</w>": 2854, "richard</w>": 2855, "biisim</w>": 2856, "jɛmdi</w>": 2857, "elizabeth</w>": 2858, "shεba</w>": 2859, "kansas</w>": 2860, "adjei</w>": 2861, "tizo</w>": 2862, "kasiɣira</w>": 2863, "nawun": 2864, "girls</w>": 2865, "war</w>": 2866, "1964</w>": 2867, "kɔbisita</w>": 2868, "pali.</w>": 2869, "chuɣu.</w>": 2870, "laɣidibo</w>": 2871, "guui</w>": 2872, "ani.</w>": 2873, "2017.</w>": 2874, "sun": 2875, "ʒileli</w>": 2876, "agona</w>": 2877, "asi": 2878, "malimi</w>": 2879, "mɛri</w>": 2880, "kɔbiri</w>": 2881, "dagbaŋ,</w>": 2882, "tumda.</w>": 2883, "luɣu</w>": 2884, "everg": 2885, "rili</w>": 2886, "royal</w>": 2887, "zani.</w>": 2888, "gushe-naa</w>": 2889, "india</w>": 2890, "center</w>": 2891, "nambu</w>": 2892, "jia</w>": 2893, "muni</w>": 2894, "neen’</w>": 2895, "pennsylvania</w>": 2896, "buɣisiya</w>": 2897, "ber": 2898, "m-boli</w>": 2899, "th": 2900, "catholic</w>": 2901, "kpaa</w>": 2902, "riti</w>": 2903, "dɔli</w>": 2904, "tuumba</w>": 2905, "domini</w>": 2906, "bipola</w>": 2907, "dunya</w>": 2908, "dibaayi</w>": 2909, "yaa.</w>": 2910, "bɔbi</w>": 2911, "nyo</w>": 2912, "washington</w>": 2913, "n-nye</w>": 2914, "nambɔɣu</w>": 2915, "indiana</w>": 2916, "buɣum</w>": 2917, "shali</w>": 2918, "damli</w>": 2919, "pihiwɔi</w>": 2920, "garila</w>": 2921, "he": 2922, "biɛ</w>": 2923, "dindina</w>": 2924, "tindaan’</w>": 2925, "zuli</w>": 2926, "ari": 2927, "caribbean</w>": 2928, "%</w>": 2929, "bachiniŋdili</w>": 2930, "pindi</w>": 2931, "n-labi</w>": 2932, "n-nyɛ,</w>": 2933, "yuŋ.</w>": 2934, "jerry</w>": 2935, "at": 2936, "zuɣupinibu</w>": 2937, "jiŋ": 2938, "asori</w>": 2939, "afanima</w>": 2940, "danko</w>": 2941, "ŋmabu</w>": 2942, "ɣuni</w>": 2943, "suli</w>": 2944, "1974</w>": 2945, "naa": 2946, "dunoya</w>": 2947, "lari</w>": 2948, "kuru": 2949, "yirila</w>": 2950, "yubu</w>": 2951, "1)</w>": 2952, "fort</w>": 2953, "yize": 2954, "dagbɔŋ</w>": 2955, "doo": 2956, "deela</w>": 2957, "2016.</w>": 2958, "nyaaga</w>": 2959, "bi'": 2960, "fuseini</w>": 2961, "dahalali</w>": 2962, "prime</w>": 2963, "ans</w>": 2964, "gbe": 2965, "edward</w>": 2966, "zilinli</w>": 2967, "zaŋdila</w>": 2968, "maai</w>": 2969, "saɣingu</w>": 2970, "wisconsin</w>": 2971, "gbinni.</w>": 2972, "jintora</w>": 2973, "prince</w>": 2974, "yino,</w>": 2975, "tituɣiri</w>": 2976, "namda</w>": 2977, "yunyoo</w>": 2978, "nimmɔhi</w>": 2979, "son</w>": 2980, "boondi</w>": 2981, "africa,</w>": 2982, "dagbam": 2983, "mo</w>": 2984, "bachikpani</w>": 2985, "29</w>": 2986, "vɔ": 2987, "nyerizi": 2988, "ment</w>": 2989, "sha": 2990, "tiim</w>": 2991, "piini</w>": 2992, "yen</w>": 2993, "mira</w>": 2994, "308": 2995, "her": 2996, "association</w>": 2997, "niger</w>": 2998, "jɛrusalɛm</w>": 2999, "kpuɣibu</w>": 3000, "art</w>": 3001, "lll</w>": 3002, "bimbilla</w>": 3003, "ayirimo</w>": 3004, "lades</w>": 3005, "yԑn</w>": 3006, "naayi</w>": 3007, "aba</w>": 3008, "brazil</w>": 3009, "alizumma</w>": 3010, "gni.</w>": 3011, "yiɣisina</w>": 3012, "mexico</w>": 3013, "van</w>": 3014, "bɛn’</w>": 3015, "looi</w>": 3016, "daabia</w>": 3017, "pahiya</w>": 3018, "bɔrila</w>": 3019, "media</w>": 3020, "ayopɔin.</w>": 3021, "phd</w>": 3022, "naɣi</w>": 3023, "bia!</w>": 3024, "maachi</w>": 3025, "alaafeei</w>": 3026, "shԑli</w>": 3027, "professor</w>": 3028, "issah</w>": 3029, "lem(ndc)</w>": 3030, "zangbalung-": 3031, "women</w>": 3032, "town</w>": 3033, "political</w>": 3034, "mi)</w>": 3035, "kpahim</w>": 3036, "kp": 3037, "1966</w>": 3038, "yin</w>": 3039, "ninvuɣ'": 3040, "chartered</w>": 3041, "yaɣ'shɛli</w>": 3042, "dɛ": 3043, "ds</w>": 3044, "fiɛ": 3045, "zɛ": 3046, "we</w>": 3047, "kundivihira</w>": 3048, "kpɛla</w>": 3049, "namatiɛri</w>": 3050, "zuɣusaa.</w>": 3051, "(yendi)</w>": 3052, "n-sɔŋ</w>": 3053, "pooi</w>": 3054, "2011,</w>": 3055, "naani</w>": 3056, "cfa</w>": 3057, "shaawara</w>": 3058, "yori</w>": 3059, "golden</w>": 3060, "lihibu</w>": 3061, "jâ": 3062, "tibiri</w>": 3063, "si,</w>": 3064, "ligi</w>": 3065, "ŋariŋ</w>": 3066, "degre": 3067, "department</w>": 3068, "civil</w>": 3069, "bɔl</w>": 3070, "dari": 3071, "second</w>": 3072, "1982</w>": 3073, "yiinda</w>": 3074, "maŋa,</w>": 3075, "tɔm</w>": 3076, "goma</w>": 3077, "kana.</w>": 3078, "gbullung-": 3079, "pel": 3080, "tampiŋ</w>": 3081, "katiŋa</w>": 3082, "project</w>": 3083, "tani</w>": 3084, "tiŋa,</w>": 3085, "n-yɛli</w>": 3086, "jilimalana</w>": 3087, "ll": 3088, "darigi</w>": 3089, "tourism</w>": 3090, "bachizaanili</w>": 3091, "luna</w>": 3092, "kuli.</w>": 3093, "mark</w>": 3094, "tulaale</w>": 3095, "fran": 3096, "organization</w>": 3097, "bipuɣiŋga</w>": 3098, "gbɛri</w>": 3099, "31</w>": 3100, "piɛm</w>": 3101, "karimbaani</w>": 3102, "ce": 3103, "1978</w>": 3104, "situra</w>": 3105, "maŋmaŋ’</w>": 3106, "jandi</w>": 3107, "tandi</w>": 3108, "\"the</w>": 3109, "ford</w>": 3110, "people</w>": 3111, "sali</w>": 3112, "gushegu,</w>": 3113, "nangban</w>": 3114, "yɛlto": 3115, "fari</w>": 3116, "legal</w>": 3117, "bôri</w>": 3118, "m-bɔ</w>": 3119, "nyaan": 3120, "he</w>": 3121, "lɔŋ</w>": 3122, "tôbu</w>": 3123, "yɛl": 3124, "wɔhu</w>": 3125, "yolisima</w>": 3126, "polo": 3127, "ŋmara</w>": 3128, "dura</w>": 3129, "soli,</w>": 3130, "dinni</w>": 3131, "georgia</w>": 3132, "per": 3133, "daan": 3134, "lands</w>": 3135, "ers</w>": 3136, "laɣimbu</w>": 3137, "tinim’</w>": 3138, "ahmed</w>": 3139, "n-ku</w>": 3140, "gadabsi": 3141, "kutooi</w>": 3142, "maha</w>": 3143, "ŋuna,</w>": 3144, "atsu</w>": 3145, "woliginsim</w>": 3146, "tiŋgban</w>": 3147, "circuit,</w>": 3148, "ley</w>": 3149, "binsaa</w>": 3150, "fm</w>": 3151, "arkansas</w>": 3152, "fu</w>": 3153, "egbeni,</w>": 3154, "molo</w>": 3155, "tuli</w>": 3156, "premier</w>": 3157, "nolɔɣu</w>": 3158, "crusader</w>": 3159, "tingbaŋ</w>": 3160, "anahi,</w>": 3161, "final</w>": 3162, "kaai</w>": 3163, "leeri</w>": 3164, "is": 3165, "acheampong</w>": 3166, "parliamentary</w>": 3167, "gom</w>": 3168, "dakota</w>": 3169, "mrs</w>": 3170, "1989</w>": 3171, "kurigu</w>": 3172, "rimi</w>": 3173, "vɛ": 3174, "mia</w>": 3175, "n-kuri</w>": 3176, "tari": 3177, "oregon</w>": 3178, "shikuru.</w>": 3179, "silimiin-gɔli</w>": 3180, "nin’</w>": 3181, "covid-19</w>": 3182, "saawara</w>": 3183, "lanyili,</w>": 3184, "gulibu</w>": 3185, "baŋsim,</w>": 3186, "sɔ</w>": 3187, "saint-": 3188, "d’</w>": 3189, "francis</w>": 3190, "industry</w>": 3191, "gari.</w>": 3192, "copa</w>": 3193, "krak</w>": 3194, "air</w>": 3195, "(n": 3196, "dɛma</w>": 3197, "åa,</w>": 3198, "paɣ'": 3199, "anu,</w>": 3200, "ll</w>": 3201, "commission</w>": 3202, "poli</w>": 3203, "dan": 3204, "m-bɔŋɔ.</w>": 3205, "awa</w>": 3206, "maine</w>": 3207, "2006,</w>": 3208, "teela</w>": 3209, "laasabu.</w>": 3210, "m-bahi</w>": 3211, "pi</w>": 3212, "tuu</w>": 3213, "timsim</w>": 3214, "g’</w>": 3215, "yirigi</w>": 3216, "nasara.</w>": 3217, "shiiri</w>": 3218, "dansi</w>": 3219, "dede</w>": 3220, "é</w>": 3221, "litaafi</w>": 3222, "$": 3223, "luŋ</w>": 3224, "domin</w>": 3225, "thomas</w>": 3226, "ghanaian</w>": 3227, "canada,": 3228, "tinsi.</w>": 3229, "kurigi</w>": 3230, "ɣukam</w>": 3231, "kpaɣu</w>": 3232, "nεma</w>": 3233, "yuli.</w>": 3234, "kpari": 3235, "lɛbila</w>": 3236, "lɔri</w>": 3237, "dori</w>": 3238, "ʒemani</w>": 3239, "tindaannima</w>": 3240, "sola</w>": 3241, "bawumia</w>": 3242, "britain</w>": 3243, "n-jɛndi</w>": 3244, "zaawuni</w>": 3245, "from</w>": 3246, "gori</w>": 3247, "ɣim</w>": 3248, "chibi</w>": 3249, "yaw</w>": 3250, "wor": 3251, "ala": 3252, "gbandi</w>": 3253, "bol'</w>": 3254, "oti</w>": 3255, "fati</w>": 3256, "dibaata</w>": 3257, "n-dɔɣi</w>": 3258, "gaŋdu</w>": 3259, "yunyoo,</w>": 3260, "gbiri</w>": 3261, "piigo</w>": 3262, "naa”</w>": 3263, "laɣ’</w>": 3264, "yɛlibu</w>": 3265, "ceo</w>": 3266, "ŋubi</w>": 3267, "m-maani</w>": 3268, "be,</w>": 3269, "sin": 3270, "waɣa</w>": 3271, "nyɔri": 3272, "eni</w>": 3273, "tɔ!</w>": 3274, "mori</w>": 3275, "engineering</w>": 3276, "gin": 3277, "gba,</w>": 3278, "baŋsi</w>": 3279, "1958</w>": 3280, "zugu-": 3281, "act</w>": 3282, "zambia</w>": 3283, "bimbiԑɣu</w>": 3284, "gbug": 3285, "tibo</w>": 3286, "buɣisibu</w>": 3287, "akuba,</w>": 3288, "nya.</w>": 3289, "char": 3290, "i,</w>": 3291, "s)</w>": 3292, "1957</w>": 3293, "(ka</w>": 3294, "hon</w>": 3295, "tinkpaŋ</w>": 3296, "pinibu</w>": 3297, "tampima</w>": 3298, "n-tooi</w>": 3299, "mooi</w>": 3300, "bɔɣiri</w>": 3301, "jerusalem</w>": 3302, "tiŋkpansi</w>": 3303, "[": 3304, "daanya</w>": 3305, "nahindi</w>": 3306, "yi.</w>": 3307, "nigeri": 3308, "hin": 3309, "35</w>": 3310, "natural</w>": 3311, "arizona</w>": 3312, "dagban</w>": 3313, "luɣ'</w>": 3314, "dalima</w>": 3315, "pukpariba.</w>": 3316, "bukunima</w>": 3317, "tiŋgbani.</w>": 3318, "1977</w>": 3319, "daari</w>": 3320, "gɔrim</w>": 3321, "musulimi</w>": 3322, "yuli,</w>": 3323, "fulaawasi</w>": 3324, "n-tumdi</w>": 3325, "kɔbisinahi</w>": 3326, "saŋ": 3327, "sarika</w>": 3328, "barinima</w>": 3329, "yaɣishɛli</w>": 3330, "åô": 3331, "s\"</w>": 3332, "”,</w>": 3333, "emirates.</w>": 3334, "zirili</w>": 3335, "ʒirili</w>": 3336, "ê’</w>": 3337, "reggae</w>": 3338, "duya</w>": 3339, "califor": 3340, "puhigu</w>": 3341, "ni,": 3342, "adams</w>": 3343, "fe": 3344, "sɔŋda</w>": 3345, "reserve</w>": 3346, "can</w>": 3347, "aids</w>": 3348, "dariga</w>": 3349, "zaɣ'yini</w>": 3350, "yiŋa,</w>": 3351, "accra,</w>": 3352, "men": 3353, "kalibu</w>": 3354, "wuhila</w>": 3355, "tamdi</w>": 3356, "missouri</w>": 3357, "balim</w>": 3358, "timbuktu</w>": 3359, "naawuni,</w>": 3360, "firawuna</w>": 3361, "mumuni</w>": 3362, "shɛlikam</w>": 3363, "bolibu</w>": 3364, "kubu</w>": 3365, "saêi</w>": 3366, "n-zo</w>": 3367, "children</w>": 3368, "castle</w>": 3369, "zuya</w>": 3370, "ei</w>": 3371, "kalibu.</w>": 3372, "policy</w>": 3373, "viɛnyɛliŋga</w>": 3374, "cal</w>": 3375, "ʒe": 3376, "dahimbu</w>": 3377, "n-leei</w>": 3378, "mahi</w>": 3379, "mari": 3380, "saɣim.</w>": 3381, "iddrisu</w>": 3382, "yina,</w>": 3383, "everglades</w>": 3384, "gbala</w>": 3385, "asi</w>": 3386, "silimiinsili</w>": 3387, "),": 3388, "ɣi.</w>": 3389, "maryland</w>": 3390, "soŋsim</w>": 3391, "tɛhiri</w>": 3392, "kpaŋmi</w>": 3393, "special</w>": 3394, "2012.</w>": 3395, "atam</w>": 3396, "malaika</w>": 3397, "kwasi</w>": 3398, "minnesota</w>": 3399, "bɔra.</w>": 3400, "konyuri</w>": 3401, "communication</w>": 3402, "communications</w>": 3403, "dirila</w>": 3404, "sports</w>": 3405, "2007,</w>": 3406, "dutch</w>": 3407, "ly</w>": 3408, "tuun": 3409, "dola</w>": 3410, "saɣisigu</w>": 3411, "kpali</w>": 3412, "kulim</w>": 3413, "zugu,</w>": 3414, "nyɔhi</w>": 3415, "chɛŋ</w>": 3416, "bawku</w>": 3417, "gari,</w>": 3418, "en</w>": 3419, "kpiɛ": 3420, "ŋmaari</w>": 3421, "fo</w>": 3422, "joe</w>": 3423, "zahima</w>": 3424, "grand</w>": 3425, "andunya</w>": 3426, "ney": 3427, "kpɛŋ</w>": 3428, "kɔb’</w>": 3429, "2005,</w>": 3430, "nangbani</w>": 3431, "15": 3432, "michael</w>": 3433, "office</w>": 3434, "yiina</w>": 3435, "gbib’</w>": 3436, "chaŋ,</w>": 3437, "1962</w>": 3438, "hila</w>": 3439, "albert</w>": 3440, "um</w>": 3441, "ŋahiba</w>": 3442, "sua</w>": 3443, "gɔbnanti</w>": 3444, "beei</w>": 3445, "gari": 3446, "region,ghana.</w>": 3447, "ani": 3448, "tibbu</w>": 3449, "ʒinibu</w>": 3450, "english</w>": 3451, "secretary</w>": 3452, "]</w>": 3453, "m-baŋ</w>": 3454, "vuliga,</w>": 3455, "ka.</w>": 3456, "muslim</w>": 3457, "kpahimbu</w>": 3458, "pɔ</w>": 3459, "nuhu</w>": 3460, "vali</w>": 3461, "kundu</w>": 3462, "pound</w>": 3463, "ɣ</w>": 3464, "jisonayili</w>": 3465, "ton</w>": 3466, "wood</w>": 3467, "dol’</w>": 3468, "chevali": 3469, "atani</w>": 3470, "ther": 3471, "garo</w>": 3472, "cham’</w>": 3473, "7,</w>": 3474, "dɔɣu</w>": 3475, "izraɛl": 3476, "mita</w>": 3477, "laɣin": 3478, "zakaria</w>": 3479, "ki</w>": 3480, "yiɣisila</w>": 3481, "di,</w>": 3482, "ghartey</w>": 3483, "faso</w>": 3484, "nasara,</w>": 3485, "gaa</w>": 3486, "saɣi": 3487, "abu": 3488, "\"bachelor</w>": 3489, "labimi</w>": 3490, "goo</w>": 3491, "nɔhi</w>": 3492, "sabiriba</w>": 3493, "ada</w>": 3494, "tema</w>": 3495, "foŋ</w>": 3496, "maŋa.</w>": 3497, "30": 3498, "yihibu</w>": 3499, "universi": 3500, "viɛla,</w>": 3501, "ninvuê’</w>": 3502, "ordinary</w>": 3503, "=</w>": 3504, "kan</w>": 3505, "dimbôåô</w>": 3506, "morocco</w>": 3507, "kpaŋ": 3508, "bihili</w>": 3509, "ayodin</w>": 3510, "professional</w>": 3511, "e,</w>": 3512, "wuntaŋa</w>": 3513, "jɛm</w>": 3514, "level\"</w>": 3515, "yuuni": 3516, "ce.</w>": 3517, "vooi</w>": 3518, "øi</w>": 3519, "chandi.</w>": 3520, "kɔbiliga</w>": 3521, "bε": 3522, "ʒiini</w>": 3523, "maan</w>": 3524, "cup,</w>": 3525, "seidu</w>": 3526, "tinkurugu</w>": 3527, "ʒɛmana</w>": 3528, "accra.</w>": 3529, "patrick</w>": 3530, "wiki</w>": 3531, "kpihi</w>": 3532, "viɛnyɛliŋga.</w>": 3533, "umar</w>": 3534, "madrid.</w>": 3535, "utah</w>": 3536, "pakolim</w>": 3537, "ninni</w>": 3538, ")\"</w>": 3539, "ah": 3540, "dibu.</w>": 3541, "tingbani.</w>": 3542, "sou": 3543, "kundunima</w>": 3544, "yomyom</w>": 3545, "biŋkɔbiri</w>": 3546, "bɛɛ</w>": 3547, "yɛra</w>": 3548, "nam.</w>": 3549, "tuŋ</w>": 3550, "kahi</w>": 3551, "yuu": 3552, "16": 3553, "gbini.</w>": 3554, "ji</w>": 3555, "domi</w>": 3556, "omaŋa.</w>": 3557, "ft)</w>": 3558, "lɛbigimsim</w>": 3559, "nyubu</w>": 3560, "wumsibu</w>": 3561, "constituency,</w>": 3562, "gɔm": 3563, "ni;</w>": 3564, "dagban": 3565, "to.</w>": 3566, "kɔbili</w>": 3567, "amagiro.</w>": 3568, "pirinsi</w>": 3569, "gbaŋ,</w>": 3570, "kawana</w>": 3571, "filaawasi</w>": 3572, "duko</w>": 3573, "dagbamba,</w>": 3574, "ayi": 3575, "tomsi</w>": 3576, "m-ba</w>": 3577, "ʒilinsi.</w>": 3578, "movie</w>": 3579, "kun</w>": 3580, "katari</w>": 3581, "kuui</w>": 3582, "rural</w>": 3583, "sulemaana</w>": 3584, "neeri</w>": 3585, "chanimi</w>": 3586, "bel</w>": 3587, "nyaanŋa</w>": 3588, "assin</w>": 3589, "president</w>": 3590, "n-chani</w>": 3591, "salah</w>": 3592, "bipuɣinga</w>": 3593, "brong</w>": 3594, "yaari</w>": 3595, "adimisstireta</w>": 3596, "tuhibu</w>": 3597, "tiriba</w>": 3598, "ball</w>": 3599, "20,</w>": 3600, "paêa</w>": 3601, "dɔɣite</w>": 3602, "committee,</w>": 3603, "wulana</w>": 3604, "bur": 3605, "edu": 3606, "fc</w>": 3607, "zuɣiri</w>": 3608, "pahimi</w>": 3609, "kumdi</w>": 3610, "timsili</w>": 3611, "baɣili</w>": 3612, "iii</w>": 3613, "saria</w>": 3614, "puhira</w>": 3615, "ms</w>": 3616, "dihibu</w>": 3617, "my</w>": 3618, "yahaya</w>": 3619, "dolisi</w>": 3620, "tex": 3621, "graduate</w>": 3622, "chihira</w>": 3623, "kpɛrikpɛriti</w>": 3624, "tɛri</w>": 3625, "€": 3626, "zoligu</w>": 3627, "party,</w>": 3628, "2020.</w>": 3629, "malifa</w>": 3630, "asibiri</w>": 3631, "vaai</w>": 3632, "nim'</w>": 3633, "jilima.</w>": 3634, "top</w>": 3635, "zangina</w>": 3636, "gbun": 3637, "ed</w>": 3638, "mana</w>": 3639, "tinzuɣu</w>": 3640, "kobigu</w>": 3641, "tindana,</w>": 3642, "alali</w>": 3643, "daŋ": 3644, "omaŋ’</w>": 3645, "kpalinkpaa</w>": 3646, "nyɛla.</w>": 3647, "muɣisiri</w>": 3648, "kuma</w>": 3649, "zoobu</w>": 3650, "(northern</w>": 3651, "dama,</w>": 3652, "nyɔŋ</w>": 3653, "kpɛbu</w>": 3654, "labisiri</w>": 3655, "bei</w>": 3656, "af": 3657, "reser": 3658, "kula</w>": 3659, "asan": 3660, "ati</w>": 3661, "yɛltɔɣa.</w>": 3662, "nyɛrifu</w>": 3663, "yaabu</w>": 3664, "shitɔbu</w>": 3665, "burkina</w>": 3666, "aduna</w>": 3667, "bɔhiri</w>": 3668, "2019.</w>": 3669, ",ka</w>": 3670, "1973</w>": 3671, "km</w>": 3672, "shikuru,</w>": 3673, "karachinima</w>": 3674, "14": 3675, "binniɛ": 3676, "salima,</w>": 3677, "tur": 3678, "waligi</w>": 3679, "bba</w>": 3680, "naari</w>": 3681, "jɛŋkuno</w>": 3682, "pakistan</w>": 3683, "buŋa</w>": 3684, "shɛhiranima</w>": 3685, "por": 3686, "buɣiri</w>": 3687, "ka,</w>": 3688, "dɔɣitɛ</w>": 3689, "buɣim.</w>": 3690, "yɛhudi": 3691, "yim.</w>": 3692, "lebigiri</w>": 3693, "kamani;</w>": 3694, "gɔŋ</w>": 3695, "ŋɔdua</w>": 3696, "kuligi</w>": 3697, "3)</w>": 3698, "bim": 3699, "boŋɔ.</w>": 3700, "maliŋ</w>": 3701, "shɛri</w>": 3702, "gbuna</w>": 3703, "mbusim</w>": 3704, "tatabo.</w>": 3705, "wan": 3706, "daba": 3707, "zom</w>": 3708, "1948</w>": 3709, "adu</w>": 3710, "zara": 3711, "gbɛ": 3712, "agriculture</w>": 3713, "spain.</w>": 3714, "viâ": 3715, "bachinamda</w>": 3716, "bin'": 3717, "dundɔ": 3718, "yer": 3719, "soap</w>": 3720, "1961</w>": 3721, "siliminsili</w>": 3722, "tingban": 3723, "zab": 3724, "takoradi</w>": 3725, "duuni</w>": 3726, "zuɣusaa,</w>": 3727, "bil’</w>": 3728, "”": 3729, "n-kpa</w>": 3730, "yɛligibu</w>": 3731, "malibu,</w>": 3732, "alibalisa</w>": 3733, "school.</w>": 3734, "1984</w>": 3735, "ariziki</w>": 3736, "yaangi</w>": 3737, "dun": 3738, "season</w>": 3739, "mb": 3740, "lâbi</w>": 3741, "battir</w>": 3742, "shaba</w>": 3743, "m-bɔri</w>": 3744, "sama</w>": 3745, "nyankpala</w>": 3746, "wumsiri</w>": 3747, "pan</w>": 3748, "tiŋshɛli</w>": 3749, "dabam</w>": 3750, "bunu</w>": 3751, "shεm,</w>": 3752, "kuyili</w>": 3753, "zilima</w>": 3754, "alɔbo</w>": 3755, "m-mi</w>": 3756, "nk": 3757, "zaŋm’</w>": 3758, "tampi": 3759, "hawa</w>": 3760, "associ": 3761, "prize</w>": 3762, "dizuɣu</w>": 3763, "ation</w>": 3764, "ti,</w>": 3765, "dagba": 3766, "hɔ": 3767, "2nd</w>": 3768, "sam</w>": 3769, "saw": 3770, "yɛ</w>": 3771, "paɣi": 3772, "prempeh</w>": 3773, "et</w>": 3774, "education\"</w>": 3775, "german</w>": 3776, "boori</w>": 3777, "shԑŋa</w>": 3778, "zosimli</w>": 3779, "kahigibu</w>": 3780, "zuɣu;</w>": 3781, "samar": 3782, "oppong</w>": 3783, "barcelona</w>": 3784, "1099": 3785, "paligi</w>": 3786, "kpe.</w>": 3787, "takɔbi</w>": 3788, "zuri</w>": 3789, "states.</w>": 3790, "muni": 3791, "bimbira</w>": 3792, "community.</w>": 3793, "1968</w>": 3794, "yanima</w>": 3795, "dɛdɛ</w>": 3796, "satarili</w>": 3797, "sabinli</w>": 3798, "diɛ": 3799, "%,</w>": 3800, "bahibu</w>": 3801, "%)</w>": 3802, "m’</w>": 3803, "tana</w>": 3804, "kuri": 3805, "dɔɣiriba</w>": 3806, "gce</w>": 3807, "who</w>": 3808, "district.</w>": 3809, "bahira.</w>": 3810, "alemany</w>": 3811, "mbe</w>": 3812, "her</w>": 3813, "sheŋa</w>": 3814, "diyi</w>": 3815, "lango</w>": 3816, "salin": 3817, "sula</w>": 3818, "miya</w>": 3819, "ini</w>": 3820, "classification</w>": 3821, "niådi</w>": 3822, "(mani</w>": 3823, "namdi</w>": 3824, "gumaaniba</w>": 3825, "26</w>": 3826, "yâri</w>": 3827, "kpandai</w>": 3828, "7th</w>": 3829, "vihisi</w>": 3830, "vihibu</w>": 3831, "dira.</w>": 3832, "commissioner</w>": 3833, "6,</w>": 3834, "bum</w>": 3835, "êi</w>": 3836, "tiriti</w>": 3837, "1944</w>": 3838, "boateng</w>": 3839, "zabid</w>": 3840, "jamii</w>": 3841, "komitii.</w>": 3842, "bali": 3843, "d)</w>": 3844, "waɣinli</w>": 3845, "ces</w>": 3846, "him": 3847, "hello.</w>": 3848, "binyεra</w>": 3849, "greek</w>": 3850, "nyâmi,</w>": 3851, "sheikh</w>": 3852, "theatre</w>": 3853, "teaching</w>": 3854, "mother</w>": 3855, "subee</w>": 3856, "17": 3857, "kpɛribu</w>": 3858, "mibu</w>": 3859, "ca": 3860, "zɔhi</w>": 3861, "mer": 3862, "yagli</w>": 3863, "abukari</w>": 3864, "itv</w>": 3865, "iowa</w>": 3866, "ri,</w>": 3867, "boliŋmɛriba</w>": 3868, "m-paai</w>": 3869, "n-tabili</w>": 3870, "kufɔɣu</w>": 3871, "paŋ</w>": 3872, "sal’</w>": 3873, "kɔrigi</w>": 3874, "sali": 3875, "ebenezer</w>": 3876, "neei.</w>": 3877, "t,</w>": 3878, "yee</w>": 3879, "duhiri</w>": 3880, "yina.</w>": 3881, "lihimi</w>": 3882, "yaannima</w>": 3883, "canada,british</w>": 3884, "si.</w>": 3885, "woligu</w>": 3886, "guu": 3887, "advanced</w>": 3888, "(8": 3889, "2000,</w>": 3890, "shiɛli</w>": 3891, "magazine</w>": 3892, "alexander</w>": 3893, "fund</w>": 3894, "guma</w>": 3895, "bili": 3896, "four": 3897, "kamina</w>": 3898, "shs</w>": 3899, "gana</w>": 3900, "salin</w>": 3901, "chuuta</w>": 3902, "chami</w>": 3903, "aleppo</w>": 3904, "paati.</w>": 3905, "soochi</w>": 3906, "moɣili</w>": 3907, "metres</w>": 3908, "piriba</w>": 3909, "kambonsi</w>": 3910, "chɛni</w>": 3911, "ai": 3912, "white</w>": 3913, "cali": 3914, "pollution</w>": 3915, "ɣisi": 3916, "ver</w>": 3917, "pɔŋ</w>": 3918, "ningbiŋ</w>": 3919, "n-tahi</w>": 3920, "congress.</w>": 3921, "dabari</w>": 3922, "fabila</w>": 3923, "bachibuɣisira</w>": 3924, "n-yihi</w>": 3925, "salaga</w>": 3926, "clu": 3927, "m-bi</w>": 3928, "title</w>": 3929, "kumbun": 3930, "luntali</w>": 3931, "burundi</w>": 3932, "nini.</w>": 3933, "star</w>": 3934, "gambee</w>": 3935, "maana</w>": 3936, "districts</w>": 3937, "niɣilim</w>": 3938, "kentucky</w>": 3939, "gbankɔɣu</w>": 3940, "region,": 3941, "baå": 3942, "n-do</w>": 3943, "åme</w>": 3944, "lu,</w>": 3945, "gbahibu</w>": 3946, "dɔɣirikpɛma</w>": 3947, "alahichi</w>": 3948, "maligim</w>": 3949, "sahakam</w>": 3950, "jahi</w>": 3951, "mahim</w>": 3952, "sahakam.</w>": 3953, "ŋmeri</w>": 3954, "yâli,</w>": 3955, "nairobi</w>": 3956, "sabigi</w>": 3957, "per</w>": 3958, "bila,</w>": 3959, "pili,</w>": 3960, "tumtumda</w>": 3961, "n-tim</w>": 3962, "ernst</w>": 3963, "pua</w>": 3964, "puhira.</w>": 3965, "henry</w>": 3966, "air": 3967, "biŋ</w>": 3968, "jiŋa</w>": 3969, "bom’</w>": 3970, "minaret</w>": 3971, "yiɣiri</w>": 3972, "simpa</w>": 3973, "geri": 3974, "amoah</w>": 3975, "tiå": 3976, "ninsal’</w>": 3977, "kɔbu</w>": 3978, "yin": 3979, "niŋdila</w>": 3980, "language</w>": 3981, "ɣila</w>": 3982, "indi": 3983, "mor": 3984, "bimbila</w>": 3985, "sal": 3986, "chanila</w>": 3987, "assemb": 3988, "mines</w>": 3989, "paɣidɔɣiso</w>": 3990, "kpaam</w>": 3991, "biɛrim</w>": 3992, "yilli</w>": 3993, "n-kpɛhi</w>": 3994, ",000</w>": 3995, "tira</w>": 3996, "wuuni</w>": 3997, "neen</w>": 3998, "sɔli.</w>": 3999, "tori</w>": 4000, "tibigi</w>": 4001, "plains</w>": 4002, "gaŋbu</w>": 4003, "1965</w>": 4004, "hatra</w>": 4005, "brazil.</w>": 4006, "to,</w>": 4007, "alaafe": 4008, "labisibu</w>": 4009, "kuli": 4010, "puhili</w>": 4011, "gbaala</w>": 4012, "tɔha</w>": 4013, "2022.</w>": 4014, "ʒibu</w>": 4015, "salaa</w>": 4016, "pahibu</w>": 4017, "alaafee.</w>": 4018, "biŋkɔbigu</w>": 4019, "judanim’</w>": 4020, "n,</w>": 4021, "cheche</w>": 4022, "kpambaliba</w>": 4023, "atlantic</w>": 4024, "robert</w>": 4025, "aʒia</w>": 4026, "med</w>": 4027, "n-zani</w>": 4028, "schul": 4029, "pini.</w>": 4030, "all</w>": 4031, "kɔntira": 4032, "bɔhigu</w>": 4033, "ɣ'</w>": 4034, "kam": 4035, "education": 4036, "biɛni</w>": 4037, "tournament</w>": 4038, "yoo</w>": 4039, "com": 4040, "cation</w>": 4041, "kukoo</w>": 4042, "2018.</w>": 4043, "gohi</w>": 4044, "carbon</w>": 4045, "1972</w>": 4046, "musulimi.</w>": 4047, "dunia.</w>": 4048, "2023</w>": 4049, "deeigi</w>": 4050, "ac</w>": 4051, "2014.</w>": 4052, "chana,</w>": 4053, "tii</w>": 4054, "salinli</w>": 4055, "nyami</w>": 4056, "nyam</w>": 4057, "yaɣi.</w>": 4058, "nahingbaŋ</w>": 4059, "ʒingama</w>": 4060, "saani</w>": 4061, "gingaani</w>": 4062, "argentina</w>": 4063, "silimi": 4064, "peace</w>": 4065, "kuɣsi</w>": 4066, "nee": 4067, "karaga,</w>": 4068, "tim.</w>": 4069, "coronation</w>": 4070, "bahigu.</w>": 4071, "gbaya</w>": 4072, "dabu</w>": 4073, "red</w>": 4074, "kuhiri</w>": 4075, "pinaayi</w>": 4076, "fiifi</w>": 4077, "bimbini</w>": 4078, "suhu.</w>": 4079, "fi</w>": 4080, "francs</w>": 4081, "tam": 4082, "nyaɣisa</w>": 4083, "sɔɣiri</w>": 4084, "ayan</w>": 4085, "kurugu</w>": 4086, "rɔbɔ": 4087, "yab'</w>": 4088, "ck</w>": 4089, "pirimla</w>": 4090, "lԑbi</w>": 4091, "boakye</w>": 4092, "gushɛɣu</w>": 4093, "aboagye</w>": 4094, "pirinla</w>": 4095, "yum</w>": 4096, "\"industry</w>": 4097, "song</w>": 4098, "tɔŋ": 4099, "ast</w>": 4100, "se</w>": 4101, "33</w>": 4102, "kpâma</w>": 4103, "guŋ</w>": 4104, "m-bɔŋɔ</w>": 4105, "mihi</w>": 4106, "el": 4107, "tax": 4108, "wuhimi</w>": 4109, "katika</w>": 4110, "yâlikpani</w>": 4111, "liberia</w>": 4112, "yɛntɔri</w>": 4113, "nintɔri</w>": 4114, "gue</w>": 4115, "zokuli</w>": 4116, "kpara</w>": 4117, "himi</w>": 4118, "municipality</w>": 4119, "idaho</w>": 4120, "fiila</w>": 4121, "cheka</w>": 4122, "wɔri</w>": 4123, "kasi.</w>": 4124, "kpanjɔɣu</w>": 4125, "bɛna</w>": 4126, "kilomita</w>": 4127, "zom’</w>": 4128, "william</w>": 4129, "gender</w>": 4130, "dundɔŋni</w>": 4131, "biga</w>": 4132, "biɛlima</w>": 4133, "dunɔ": 4134, "luɣushɛli</w>": 4135, "nolini</w>": 4136, "paai,</w>": 4137, "hana</w>": 4138, "dibu,</w>": 4139, "n-gu</w>": 4140, "iso</w>": 4141, "1963</w>": 4142, "madrid</w>": 4143, "man'</w>": 4144, "2013.</w>": 4145, "á": 4146, "biɛhigu,</w>": 4147, "yala</w>": 4148, "god</w>": 4149, "1985</w>": 4150, "zunzuya</w>": 4151, "ɣa,</w>": 4152, "hassan</w>": 4153, "damma</w>": 4154, "taan": 4155, "limsi</w>": 4156, "1987</w>": 4157, "falls</w>": 4158, "luhili</w>": 4159, "ɣin": 4160, "mɔri.</w>": 4161, "n-yihiri</w>": 4162, "tili</w>": 4163, "ɣibu</w>": 4164, "fred</w>": 4165, "guhi</w>": 4166, "hockey</w>": 4167, "kuɣu-naa</w>": 4168, "amina</w>": 4169, "kohi</w>": 4170, "nyin": 4171, "power</w>": 4172, "n-nam</w>": 4173, "23,</w>": 4174, "chʋɣʋ</w>": 4175, "1981</w>": 4176, "ara</w>": 4177, "wuhi": 4178, "pia.</w>": 4179, "buhi</w>": 4180, "sab’</w>": 4181, "voya</w>": 4182, "ɔn</w>": 4183, "nandaamba</w>": 4184, "creative</w>": 4185, "chɛbu</w>": 4186, "asanza</w>": 4187, "ano</w>": 4188, "win": 4189, "nyama</w>": 4190, "gh</w>": 4191, "housing</w>": 4192, "spanish</w>": 4193, "southeast</w>": 4194, "film</w>": 4195, "1951</w>": 4196, "mahili</w>": 4197, "yɛlimuɣisirili</w>": 4198, "niraba</w>": 4199, "nu'</w>": 4200, "koŋko</w>": 4201, "ŋooi</w>": 4202, "siteesa</w>": 4203, "constituency.</w>": 4204, "dahim</w>": 4205, "anu": 4206, "book</w>": 4207, "choice</w>": 4208, "luɣuluɣu</w>": 4209, "ʒilinsi</w>": 4210, "dɔmini,ʒilinsi</w>": 4211, "amaŋa</w>": 4212, "pagɔ": 4213, "produ": 4214, "ansarisi</w>": 4215, "kpahiri</w>": 4216, "egyp": 4217, "eighth</w>": 4218, "tiŋli</w>": 4219, "salin’</w>": 4220, "tamale.</w>": 4221, "paɣisara</w>": 4222, "chemi</w>": 4223, "gifty</w>": 4224, "ko'": 4225, "dali": 4226, "nani</w>": 4227, "parkes</w>": 4228, "dabaata</w>": 4229, "vi.</w>": 4230, "division</w>": 4231, "billion</w>": 4232, "tanzania</w>": 4233, "works</w>": 4234, "head</w>": 4235, "da’</w>": 4236, "gbina</w>": 4237, "ronaldo</w>": 4238, "ce,</w>": 4239, "piibu,</w>": 4240, "ser": 4241, "zaasa</w>": 4242, "taɣimi</w>": 4243, "coast,</w>": 4244, "luêu</w>": 4245, "barka</w>": 4246, "yɛl'</w>": 4247, "nahim</w>": 4248, "juaben</w>": 4249, "environment</w>": 4250, "kpihim</w>": 4251, "pumpoŋɔ</w>": 4252, "bigi</w>": 4253, "ɣisiri</w>": 4254, "tarigi</w>": 4255, "gbariti</w>": 4256, "1954</w>": 4257, "kariga</w>": 4258, "wum": 4259, "luåa</w>": 4260, "n-nyɛ": 4261, "bi.</w>": 4262, "karindi</w>": 4263, "olivi</w>": 4264, "bayaana</w>": 4265, "ghanasco</w>": 4266, "haji</w>": 4267, "chi.</w>": 4268, "conference</w>": 4269, "paɣ'</w>": 4270, "32</w>": 4271, "ŋmahindi</w>": 4272, "kɔbi": 4273, "2021.</w>": 4274, "m-miri</w>": 4275, "nyiŋ": 4276, "yuya.</w>": 4277, "zoosim</w>": 4278, "rome</w>": 4279, "christian</w>": 4280, "biâhigu</w>": 4281, "chihirila</w>": 4282, "ŋahi</w>": 4283, "nyuya</w>": 4284, "shâm,</w>": 4285, "binnema</w>": 4286, "labbu</w>": 4287, "tindaan-naa</w>": 4288, "naagi,</w>": 4289, "zuliyanima</w>": 4290, "yaw": 4291, "doro.</w>": 4292, "pololi</w>": 4293, "pɛ": 4294, "2009.</w>": 4295, "zibisim</w>": 4296, "bansi</w>": 4297, "kasi": 4298, "ŋo": 4299, "es": 4300, "tɔhi</w>": 4301, "agyemang</w>": 4302, "area</w>": 4303, "mary</w>": 4304, "kaa</w>": 4305, "chi,</w>": 4306, "tɔhiri</w>": 4307, "chee</w>": 4308, "forest</w>": 4309, "shɛba.</w>": 4310, "wɔɣi</w>": 4311, "tuɣili</w>": 4312, "lebi</w>": 4313, "“ka”</w>": 4314, "lee": 4315, "simsibu</w>": 4316, "n-fa</w>": 4317, "jaamaninima</w>": 4318, "bronze</w>": 4319, "zali": 4320, "500</w>": 4321, "viɛnyɛla,</w>": 4322, "award,</w>": 4323, "salifu</w>": 4324, "mount</w>": 4325, "jintoribi</w>": 4326, "wabu</w>": 4327, "kpam.</w>": 4328, "yalim</w>": 4329, "resour": 4330, "tɛmplɛti</w>": 4331, "yaɣa-yaɣa</w>": 4332, "nɛli</w>": 4333, "shɛlu</w>": 4334, "fer": 4335, "suli.</w>": 4336, "1.</w>": 4337, "ham": 4338, "mɔɣuni</w>": 4339, "hisi</w>": 4340, "yulibu</w>": 4341, "lula</w>": 4342, "kulu</w>": 4343, "adu": 4344, "bindir’</w>": 4345, "niŋsimdeera</w>": 4346, "samba</w>": 4347, "sanzali</w>": 4348, "ᴣ": 4349, "tɔŋ</w>": 4350, "sɔŋ.</w>": 4351, "sudan</w>": 4352, "yâlli</w>": 4353, "jɛm": 4354, "ti'</w>": 4355, "yel": 4356, "ʒɛmani</w>": 4357, "ntiri</w>": 4358, "cen": 4359, "øirili</w>": 4360, "kuna,</w>": 4361, "cham</w>": 4362, "puzuri</w>": 4363, "19th</w>": 4364, "benin</w>": 4365, "biɛhigu.</w>": 4366, "jhs</w>": 4367, "chiyaama</w>": 4368, "postgraduate</w>": 4369, "diɛmdi</w>": 4370, "daa,</w>": 4371, "nam,</w>": 4372, "kɔ</w>": 4373, "rɛ": 4374, "this</w>": 4375, "pilla</w>": 4376, "most</w>": 4377, "chain</w>": 4378, "mal": 4379, "laɣ'gbana</w>": 4380, "guliba</w>": 4381, "portal</w>": 4382, "ŋᴐ</w>": 4383, "waɣiri</w>": 4384, "tuhi": 4385, "labina.</w>": 4386, "miɛŋ</w>": 4387, "ʒiɛɣu.</w>": 4388, "nanim’</w>": 4389, "*": 4390, "bay</w>": 4391, "ŋ’</w>": 4392, "asia</w>": 4393, "pini,</w>": 4394, "ham</w>": 4395, "bemi</w>": 4396, "tinshɛli</w>": 4397, "b)</w>": 4398, "zal’</w>": 4399, "yεltɔ": 4400, "ŋmani.</w>": 4401, "naa”,</w>": 4402, "suɣili</w>": 4403, "vihiri</w>": 4404, "20th</w>": 4405, "suŋ.</w>": 4406, "old</w>": 4407, "duɣili</w>": 4408, "kpa’</w>": 4409, "nkwanta</w>": 4410, "/=</w>": 4411, "soŋ": 4412, "women's</w>": 4413, "1971</w>": 4414, "latin</w>": 4415, "dimbô": 4416, "yɛlikura</w>": 4417, "nanuŋ</w>": 4418, "duŋ": 4419, "usa</w>": 4420, "taɣili</w>": 4421, "cy": 4422, "zaamani</w>": 4423, "beach</w>": 4424, "lam</w>": 4425, "arabia</w>": 4426, "leptis</w>": 4427, "50": 4428, "bat": 4429, "gum</w>": 4430, "nyɛ,</w>": 4431, "pilimi</w>": 4432, "tumayilinima</w>": 4433, "m-bala,</w>": 4434, "gbanzogu-": 4435, "gbanjog": 4436, "stephen</w>": 4437, "lana,</w>": 4438, "bolgatanga</w>": 4439, "ŋari</w>": 4440, "aʒi</w>": 4441, "n-ka</w>": 4442, "gushi": 4443, "piligiri</w>": 4444, "kpiri</w>": 4445, "cultural</w>": 4446, "zali,</w>": 4447, "jendi</w>": 4448, "makka</w>": 4449, "damascus</w>": 4450, "homs</w>": 4451, "nee</w>": 4452, "n-yiri</w>": 4453, "yilibu</w>": 4454, "gbaŋsabila</w>": 4455, "boonila</w>": 4456, "hagu</w>": 4457, "taada.</w>": 4458, "woli</w>": 4459, "relations</w>": 4460, "nina.</w>": 4461, "ʋ": 4462, "gar": 4463, "zaɣisiri</w>": 4464, "zabbu</w>": 4465, "paati,</w>": 4466, "paana</w>": 4467, "faculty</w>": 4468, "n-leeri</w>": 4469, "amaraaba</w>": 4470, "malibu.</w>": 4471, "lahibal’</w>": 4472, "loora</w>": 4473, "nyaanga,</w>": 4474, "ran": 4475, "attorney</w>": 4476, "kundivihira.</w>": 4477, "silimin'</w>": 4478, "isaac</w>": 4479, "swift</w>": 4480, "wɔɣirili</w>": 4481, "green</w>": 4482, "london,</w>": 4483, "zo.</w>": 4484, "alaamishi</w>": 4485, "salaagbaŋ</w>": 4486, "1976</w>": 4487, "pp": 4488, "regions</w>": 4489, "tali.</w>": 4490, "montana</w>": 4491, "lady</w>": 4492, "mab": 4493, "vε": 4494, "tumtumsa</w>": 4495, "pilli</w>": 4496, "4,</w>": 4497, "yɔɣu.</w>": 4498, "febru": 4499, "lu.</w>": 4500, "yiɣijam</w>": 4501, "pɔra</w>": 4502, "wuntaŋni</w>": 4503, "yaansi</w>": 4504, "kuya</w>": 4505, "kumbu": 4506, "hachi</w>": 4507, "gbaŋlana</w>": 4508, "ɣira</w>": 4509, "ld</w>": 4510, "ŋubiri</w>": 4511, "side</w>": 4512, "alikawuli</w>": 4513, "lɔhiri</w>": 4514, "n-naai</w>": 4515, "tolon,</w>": 4516, "kuɣ'</w>": 4517, "d,</w>": 4518, "åuna</w>": 4519, "medi": 4520, "lora</w>": 4521, "pal": 4522, "buɣi": 4523, "lo,</w>": 4524, "springs</w>": 4525, "vuhiri</w>": 4526, "zam</w>": 4527, "malawi</w>": 4528, "pal’</w>": 4529, "sooja</w>": 4530, "dirigu</w>": 4531, "kara.</w>": 4532, "poetry</w>": 4533, "yu'</w>": 4534, "lε": 4535, "2004,</w>": 4536, "cameroon</w>": 4537, "nɛma.</w>": 4538, "zaɣila</w>": 4539, "gariti</w>": 4540, "namin</w>": 4541, "bim</w>": 4542, "warming</w>": 4543, "sunyani</w>": 4544, "barigi</w>": 4545, "dan’</w>": 4546, "yinsi.</w>": 4547, "tinshâli</w>": 4548, "ŋuma</w>": 4549, ";": 4550, "tizɔ": 4551, "basel</w>": 4552, "daan</w>": 4553, "mané</w>": 4554, "tiŋbihi</w>": 4555, "hinima</w>": 4556, "syri": 4557, "tabata</w>": 4558, "natan</w>": 4559, "party": 4560, "portuguese</w>": 4561, "1,000</w>": 4562, "maŋ’</w>": 4563, "nyɛ;</w>": 4564, "yɛlli.</w>": 4565, "je,</w>": 4566, "anthony</w>": 4567, "buyi.</w>": 4568, "mayili</w>": 4569, "ŋmali</w>": 4570, "yârila</w>": 4571, "zuɣupiligu</w>": 4572, "vuri.</w>": 4573, "kpee.</w>": 4574, "post</w>": 4575, "ninliha</w>": 4576, "jândila</w>": 4577, "13": 4578, "free</w>": 4579, "majid</w>": 4580, "e-": 4581, "botswana</w>": 4582, "dapala</w>": 4583, "vɔɣu</w>": 4584, "philosophy</w>": 4585, "katiŋ’</w>": 4586, "inusah</w>": 4587, "kpimi</w>": 4588, "wo</w>": 4589, "kpaliŋga</w>": 4590, "loorili</w>": 4591, "yihili</w>": 4592, "pɔlo</w>": 4593, "b,</w>": 4594, "paredes</w>": 4595, "2003,</w>": 4596, "pahira</w>": 4597, "hotel</w>": 4598, "c.</w>": 4599, "ŋgu</w>": 4600, "ʒɛman’</w>": 4601, "bandi</w>": 4602, "kamani:</w>": 4603, "nimaani,</w>": 4604, "tula</w>": 4605, "chairman</w>": 4606, "ashee</w>": 4607, "ter</w>": 4608, "opera</w>": 4609, "laani</w>": 4610, "limited.</w>": 4611, "tiɛhi</w>": 4612, "nelson</w>": 4613, "northwest</w>": 4614, "manu</w>": 4615, "binyɛrigu</w>": 4616, "bɔɣu</w>": 4617, "komitti.</w>": 4618, "pampam,</w>": 4619, "c,</w>": 4620, "new": 4621, "prof</w>": 4622, "nyahi</w>": 4623, "ambassador</w>": 4624, "bil": 4625, "nyɔri.</w>": 4626, "alikalimi</w>": 4627, "37</w>": 4628, "gaŋa</w>": 4629, "linsi</w>": 4630, "vɔri</w>": 4631, "timsa</w>": 4632, "ninneesim</w>": 4633, "2015.</w>": 4634, "bɔŋ</w>": 4635, "ŋman": 4636, "chelsea</w>": 4637, "saudi</w>": 4638, "niɛ": 4639, "kparibɔɣu</w>": 4640, "sôå": 4641, "sun</w>": 4642, "ôêu</w>": 4643, "colonial</w>": 4644, "lεbi</w>": 4645, "gaɣili</w>": 4646, "bbc</w>": 4647, "nyintaa</w>": 4648, "mathematics</w>": 4649, "kpama</w>": 4650, "lima</w>": 4651, "namatε": 4652, "cocoa</w>": 4653, "n-laɣim</w>": 4654, "tummi</w>": 4655, "nagbankpeeni</w>": 4656, "rumah</w>": 4657, "palmyrenes</w>": 4658, "yɛltɔŋa</w>": 4659, "n-to</w>": 4660, "ly,</w>": 4661, "mɔri,</w>": 4662, "liŋa</w>": 4663, "£": 4664, "yɛligbahira</w>": 4665, "karimma</w>": 4666, "grammy</w>": 4667, "sierra</w>": 4668, "pukparigu</w>": 4669, "pukpara</w>": 4670, "miriti</w>": 4671, "bidibsi</w>": 4672, "kennedy</w>": 4673, "prin": 4674, "sab": 4675, "sapashinnima</w>": 4676, "las</w>": 4677, "martin</w>": 4678, "suui</w>": 4679, "nyu.</w>": 4680, "sultan</w>": 4681, "gulf</w>": 4682, "yipa</w>": 4683, "bindirigu.</w>": 4684, "cial</w>": 4685, "dom</w>": 4686, "niɣi</w>": 4687, "tɛhiya</w>": 4688, "garamba</w>": 4689, "record</w>": 4690, "15,</w>": 4691, "galisiya</w>": 4692, "michel</w>": 4693, "koli</w>": 4694, "tan’</w>": 4695, "rwanda</w>": 4696, "yaɣi": 4697, "ag": 4698, "mali,</w>": 4699, "muɣisi</w>": 4700, "tir’</w>": 4701, "ɣili.</w>": 4702, "kompiita</w>": 4703, "kobisita</w>": 4704, "anfo": 4705, "lem(ndc)paati</w>": 4706, "bɛri</w>": 4707, "n-naai,</w>": 4708, "sodoligu.</w>": 4709, "kati</w>": 4710, "zana</w>": 4711, "yɛltɔɣa,</w>": 4712, "asɔri</w>": 4713, "silver</w>": 4714, "biεla</w>": 4715, "sɔŋ,</w>": 4716, "titali,di</w>": 4717, "yɛlimaŋ": 4718, "piibu-": 4719, "three</w>": 4720, "tennessee</w>": 4721, "emmer": 4722, "akwasi</w>": 4723, "pori</w>": 4724, "puni</w>": 4725, "gamo</w>": 4726, "tiɛri</w>": 4727, "haruna</w>": 4728, "escudo</w>": 4729, "mɛla</w>": 4730, "binyɛri</w>": 4731, "yidantɔ": 4732, "’o</w>": 4733, "í": 4734, "kuro,</w>": 4735, "n-gbaai</w>": 4736, "foreign</w>": 4737, "achiika</w>": 4738, "kulikpariga</w>": 4739, "gunu</w>": 4740, "algeria</w>": 4741, "coast.</w>": 4742, "madam</w>": 4743, "amadi</w>": 4744, "nyom</w>": 4745, "putɔ": 4746, "dalasi</w>": 4747, "zuwa</w>": 4748, "forestry</w>": 4749, "balante</w>": 4750, "deemi</w>": 4751, "tadabo</w>": 4752, "palmy": 4753, "wame</w>": 4754, "nature</w>": 4755, "sarati</w>": 4756, "trust</w>": 4757, "egu</w>": 4758, "karinzɔŋ</w>": 4759, "tahili</w>": 4760, "1992,</w>": 4761, "wakaso</w>": 4762, "ŋu</w>": 4763, "yani,</w>": 4764, "wal’</w>": 4765, "nigeria,</w>": 4766, "birili</w>": 4767, "galisi,</w>": 4768, "state,</w>": 4769, "marine</w>": 4770, "tuhi.</w>": 4771, "zuɣulaan</w>": 4772, "souq</w>": 4773, "dihiri</w>": 4774, "zuɣu)</w>": 4775, "m-bahiri</w>": 4776, "llun": 4777, "sɛ": 4778, "laɣ'</w>": 4779, "salimbu</w>": 4780, "baŋsiri</w>": 4781, "aduwa</w>": 4782, "laɣa</w>": 4783, "laɣafu</w>": 4784, "yaɣ'shɛŋa</w>": 4785, "kufogu</w>": 4786, "examination</w>": 4787, "victor</w>": 4788, "open</w>": 4789, "sahashɛli</w>": 4790, "ŋahili</w>": 4791, "biɛri.</w>": 4792, "’.</w>": 4793, "simon</w>": 4794, "ken": 4795, "yɔbu</w>": 4796, "kpakpili</w>": 4797, "willi": 4798, "kwanza</w>": 4799, "dirham</w>": 4800, "adichie</w>": 4801, "chɛrimi</w>": 4802, "ed": 4803, "n'": 4804, "kor": 4805, "tia.</w>": 4806, "one</w>": 4807, "yɛlimaŋli.</w>": 4808, "bsc</w>": 4809, "kuu": 4810, "1983</w>": 4811, "zaŋsim</w>": 4812, "nanu": 4813, "n-guli</w>": 4814, "tooka</w>": 4815, "1,": 4816, "zib": 4817, "yɔɣuni</w>": 4818, "jaŋ": 4819, "insurance</w>": 4820, "zalibu</w>": 4821, "ʒinila</w>": 4822, "sti": 4823, "firila</w>": 4824, "manchester</w>": 4825, "alidu</w>": 4826, "nyɔ</w>": 4827, "nan-ti</w>": 4828, "dankwa</w>": 4829, "yεltɔɣa</w>": 4830, "awuraba</w>": 4831, "sumani</w>": 4832, "ben</w>": 4833, "siɣim</w>": 4834, "ouguiya</w>": 4835, "tim": 4836, "ti’</w>": 4837, "lle": 4838, "winne": 4839, "bukaata.</w>": 4840, "kpε": 4841, "dɔr'</w>": 4842, "yɛtɔɣa.</w>": 4843, "tilaa</w>": 4844, "wesley</w>": 4845, "wolim</w>": 4846, "bushɛm</w>": 4847, "andani-": 4848, "bibihi</w>": 4849, "toon</w>": 4850, "tariga,</w>": 4851, "nianima</w>": 4852, "gbalun": 4853, "artist</w>": 4854, "n-nyɛli</w>": 4855, "young</w>": 4856, "gaŋ</w>": 4857, "mississippi</w>": 4858, "sta": 4859, "toondini</w>": 4860, "kundoni</w>": 4861, "mahamudu</w>": 4862, "yɛligu.</w>": 4863, "thank</w>": 4864, "daankali</w>": 4865, "19,</w>": 4866, "kambɔŋ</w>": 4867, "jɔn</w>": 4868, "yɛliparim</w>": 4869, "yura</w>": 4870, "abubakar</w>": 4871, "law,</w>": 4872, "biɛm</w>": 4873, "wanzam</w>": 4874, "hall</w>": 4875, "zamba</w>": 4876, "lɔhi</w>": 4877, "gbaŋ-lana</w>": 4878, "zona</w>": 4879, "simi</w>": 4880, "gbam": 4881, "siliminsi</w>": 4882, "winneba</w>": 4883, "mini": 4884, "nimbihi</w>": 4885, "ŋmɛriba</w>": 4886, "guhiri</w>": 4887, "filisti": 4888, "fukumsinima</w>": 4889, "hira.</w>": 4890, "kɔbiri.</w>": 4891, "kɔbisiyɔbu</w>": 4892, "nakɔhigu</w>": 4893, "nyɛviya</w>": 4894, "pihiyobu</w>": 4895, "kɔbisiyopɔin</w>": 4896, "zilinkom</w>": 4897, "buɣuli</w>": 4898, "tampuli</w>": 4899, "mulichi</w>": 4900, "services</w>": 4901, "daalahichi</w>": 4902, "nyaaåa</w>": 4903, "aŋa</w>": 4904, "law": 4905, "entertainment</w>": 4906, "syrian</w>": 4907, "ana": 4908, "dulim</w>": 4909, "ta'ada</w>": 4910, "you</w>": 4911, "polli</w>": 4912, "tab</w>": 4913, "libigirili</w>": 4914, "lan’</w>": 4915, "[[": 4916, "frimpong</w>": 4917, "coronavirus</w>": 4918, "bapira</w>": 4919, "ʒirila</w>": 4920, "johnson</w>": 4921, "islands</w>": 4922, "literature</w>": 4923, "hospitaller</w>": 4924, "championship</w>": 4925, "sunsɔŋ</w>": 4926, "shinshɛri</w>": 4927, "kori</w>": 4928, "lai</w>": 4929, "adua</w>": 4930, "yôêu</w>": 4931, "rhode</w>": 4932, "39</w>": 4933, "kpuɣibo</w>": 4934, "mah</w>": 4935, "></w>": 4936, "pahigu</w>": 4937, "n-zahim</w>": 4938, "you.</w>": 4939, "lɛbigiri</w>": 4940, "baŋli</w>": 4941, "ami</w>": 4942, "teebuli</w>": 4943, "bindi": 4944, "gbunni,</w>": 4945, "ru</w>": 4946, "vuui</w>": 4947, "pali,</w>": 4948, "den": 4949, "2008.</w>": 4950, "ivory</w>": 4951, "festival</w>": 4952, "tun</w>": 4953, "bakr</w>": 4954, "palɔ": 4955, "ameri": 4956, "ty": 4957, "yil’</w>": 4958, "yila.</w>": 4959, "times</w>": 4960, "ottoman</w>": 4961, "suhudoo.</w>": 4962, "adama</w>": 4963, "daadaa</w>": 4964, "nua</w>": 4965, "cer": 4966, "louisiana</w>": 4967, "hajia</w>": 4968, "suŋ,</w>": 4969, "n-ʒe</w>": 4970, "kaani</w>": 4971, "babatu</w>": 4972, "nsi</w>": 4973, "êa</w>": 4974, "tri": 4975, "tusa</w>": 4976, "third</w>": 4977, "palli,</w>": 4978, "tanti</w>": 4979, "mahi": 4980, "indian</w>": 4981, "suhigu</w>": 4982, "-naa</w>": 4983, "n-kpuɣi</w>": 4984, "ginda</w>": 4985, "yɛra,</w>": 4986, "muslinsi</w>": 4987, "yellow</w>": 4988, "balishɛli</w>": 4989, "larigi</w>": 4990, "tetteh</w>": 4991, "june,</w>": 4992, "kpe,</w>": 4993, "oil</w>": 4994, "naani.</w>": 4995, "masi": 4996, "tarili</w>": 4997, "saɣisiri</w>": 4998, "kpuɣinimbu</w>": 4999, "kom": 5000, "195": 5001, "230</w>": 5002, "piɛ</w>": 5003, "ʒɛ</w>": 5004, "yiɣ'": 5005, "lunnaa</w>": 5006, "philip</w>": 5007, "director\"</w>": 5008, "regina</w>": 5009, ",ni</w>": 5010, "kojo</w>": 5011, "mus": 5012, "kpɛm’</w>": 5013, "gorim</w>": 5014, "yimina</w>": 5015, "cky</w>": 5016, "omaŋa</w>": 5017, "alaha</w>": 5018, "zaɣisila</w>": 5019, "arthur</w>": 5020, "ŋʋn</w>": 5021, "gara</w>": 5022, "paai.</w>": 5023, "tiŋmaa</w>": 5024, "finan": 5025, "israel</w>": 5026, "daboya</w>": 5027, "tuuntumsa</w>": 5028, "ziŋ": 5029, "40</w>": 5030, "cabinet</w>": 5031, "shinka": 5032, "riga</w>": 5033, "naɣ": 5034, "kpalindi</w>": 5035, "duzuɣu</w>": 5036, "tuzo</w>": 5037, "tirila</w>": 5038, "a-": 5039, "bɛiɣu</w>": 5040, "kuɣusi</w>": 5041, "afram</w>": 5042, "moses</w>": 5043, "soci": 5044, "n-niå</w>": 5045, "duna</w>": 5046, "actor</w>": 5047, "ven": 5048, "dinzuêu</w>": 5049, "yâltôê’</w>": 5050, "century,</w>": 5051, "tor": 5052, "interior</w>": 5053, "bo,</w>": 5054, "kohiri</w>": 5055, "sapuɣu</w>": 5056, "management\"</w>": 5057, "haŋ": 5058, "stu": 5059, "bbu</w>": 5060, "alaska</w>": 5061, "lingbuå</w>": 5062, "tarimba</w>": 5063, "libya</w>": 5064, "nib</w>": 5065, "sibigi</w>": 5066, "q</w>": 5067, "jaaŋ": 5068, "n-kpɛri</w>": 5069, "hans</w>": 5070, "bukali</w>": 5071, "shɛlɔ": 5072, "maʒina</w>": 5073, "tingban'</w>": 5074, "duɣuri</w>": 5075, "sa.</w>": 5076, "yira</w>": 5077, "alikuraani</w>": 5078, "frank</w>": 5079, "\"master</w>": 5080, "so-": 5081, "loobu</w>": 5082, "kulibɔŋ</w>": 5083, "paɣasara</w>": 5084, "2007.</w>": 5085, "ndila</w>": 5086, "samson</w>": 5087, "bɔrimi</w>": 5088, "kpambi</w>": 5089, "hirila</w>": 5090, "tusaa</w>": 5091, "aburu</w>": 5092, "ren": 5093, "age</w>": 5094, "piɛliga</w>": 5095, "kuɣulana</w>": 5096, "netherlands</w>": 5097, "nachiinsi</w>": 5098, "wu</w>": 5099, "sim.</w>": 5100, "ii": 5101, "pipia</w>": 5102, "hawaii</w>": 5103, "waazu</w>": 5104, "yelizoli</w>": 5105, "zuŋu</w>": 5106, "adalichi</w>": 5107, "frederick</w>": 5108, "ligue</w>": 5109, "tuya,</w>": 5110, "tiŋgbani,</w>": 5111, "au</w>": 5112, "tusaayi</w>": 5113, "party.</w>": 5114, "tee</w>": 5115, "colle": 5116, "wuligiri</w>": 5117, "pulini,</w>": 5118, "hala</w>": 5119, "chan": 5120, "computer</w>": 5121, "gumba</w>": 5122, "kukuo</w>": 5123, "bar</w>": 5124, "anfa": 5125, "sakuɣa</w>": 5126, "seini</w>": 5127, "bal'</w>": 5128, "jer": 5129, "n-taɣi</w>": 5130, "kpariba</w>": 5131, "silim": 5132, "nyingoli</w>": 5133, "biɛla,</w>": 5134, "biɛɣuni</w>": 5135, "ton": 5136, "bɔrobɔro</w>": 5137, "petroleum</w>": 5138, "tɛli</w>": 5139, "dalirinima</w>": 5140, "mma</w>": 5141, "kaɣili</w>": 5142, "bi,</w>": 5143, "yâl’</w>": 5144, "italy</w>": 5145, "sitira</w>": 5146, "fitiina</w>": 5147, "television</w>": 5148, "puhi": 5149, "gabiri</w>": 5150, "kar": 5151, "shikuri</w>": 5152, "kpil’</w>": 5153, "aadalichi</w>": 5154, "ԑ</w>": 5155, "kana,</w>": 5156, "ziblim</w>": 5157, "shԑba</w>": 5158, "\"executive</w>": 5159, "biziŋ</w>": 5160, "12,</w>": 5161, "ŋmɛla</w>": 5162, "chɛla</w>": 5163, "ko’": 5164, "gbuɣima</w>": 5165, "bisarinsi</w>": 5166, "gumachuɣu</w>": 5167, "january,</w>": 5168, "juɣu</w>": 5169, "kpalanzuya</w>": 5170, "baŋa</w>": 5171, "tɔbbi’</w>": 5172, "daanbolo</w>": 5173, "kpa.</w>": 5174, "ye.</w>": 5175, "n-dihi</w>": 5176, "bara.</w>": 5177, "dame</w>": 5178, "supply</w>": 5179, "edochie</w>": 5180, "chana.</w>": 5181, "tabili.</w>": 5182, "yisifu</w>": 5183, "faralana</w>": 5184, "ayɔpɔin</w>": 5185, "tuuba</w>": 5186, "kɔbisinu</w>": 5187, "3rd</w>": 5188, "territories</w>": 5189, "talima</w>": 5190, "daadam.</w>": 5191, "yiɣirisi</w>": 5192, "nayi</w>": 5193, "nɔ</w>": 5194, "1953</w>": 5195, "45</w>": 5196, "timur</w>": 5197, "technology,</w>": 5198, "field</w>": 5199, "2.</w>": 5200, "dagbana</w>": 5201, "gar’</w>": 5202, "zanimi</w>": 5203, "tumdiba</w>": 5204, "dima</w>": 5205, "galimi</w>": 5206, "sima,</w>": 5207, "dimbu</w>": 5208, "1974,</w>": 5209, "siligi</w>": 5210, "bim.</w>": 5211, "tuuri</w>": 5212, "sakoro</w>": 5213, "mɔhi</w>": 5214, "jilima,</w>": 5215, "alex</w>": 5216, "gali": 5217, "square</w>": 5218, "wum.</w>": 5219, "gabisi</w>": 5220, "21,</w>": 5221, "gbilisi</w>": 5222, "nayili.</w>": 5223, "higher</w>": 5224, "ŋͻ</w>": 5225, "zahindigu</w>": 5226, "toli.</w>": 5227, "yoma</w>": 5228, "marketing</w>": 5229, "ram</w>": 5230, "capu</w>": 5231, "wuna</w>": 5232, "34</w>": 5233, "dab": 5234, "accounts</w>": 5235, "point</w>": 5236, "assurance</w>": 5237, "country</w>": 5238, "1995,</w>": 5239, "bila.</w>": 5240, "doli.</w>": 5241, "bipuɣiŋsi</w>": 5242, "mahami</w>": 5243, "valley</w>": 5244, "zabaɣisi</w>": 5245, "ŋmaabu</w>": 5246, "degree\"</w>": 5247, "2023,</w>": 5248, "litiricha</w>": 5249, "2,000</w>": 5250, "wuli": 5251, "bɔbili.</w>": 5252, "maandi</w>": 5253, "chɛchɛbuŋ’</w>": 5254, "karu": 5255, "gbuɣin": 5256, "40": 5257, "pɔbi</w>": 5258, "lon</w>": 5259, "ware</w>": 5260, "sasabira</w>": 5261, "may,</w>": 5262, "zuu.</w>": 5263, "ballee</w>": 5264, "baayan</w>": 5265, "tuumi</w>": 5266, "armah</w>": 5267, "de.</w>": 5268, "ofori-atta</w>": 5269, "saliya</w>": 5270, "gonaatiɛ</w>": 5271, "emmerdale</w>": 5272, "la;</w>": 5273, "bɔbiga</w>": 5274, "sochira</w>": 5275, "tôha</w>": 5276, "dimbɔŋɔ": 5277, "lagos,</w>": 5278, "kompatiisa</w>": 5279, "nur": 5280, "vuli</w>": 5281, "(gimpa)</w>": 5282, "ŋɔɣu</w>": 5283, "lahi": 5284, "krobo</w>": 5285, "niåmi</w>": 5286, "financial</w>": 5287, "sekondi</w>": 5288, "guŋa</w>": 5289, "laŋ</w>": 5290, "dy": 5291, "kpiɔŋ.</w>": 5292, "duuma,</w>": 5293, "mioŋ-lana</w>": 5294, "shâm.</w>": 5295, "yâligi</w>": 5296, "kurila</w>": 5297, "yeboah</w>": 5298, "pihiri</w>": 5299, "commer": 5300, "kɔrisi</w>": 5301, "balibu,</w>": 5302, "zibigi</w>": 5303, "tibisim</w>": 5304, "\"master's</w>": 5305, "\"masters</w>": 5306, "ke": 5307, "god": 5308, "clinical</w>": 5309, "bari": 5310, "gbampiԑla</w>": 5311, "gh": 5312, "transport</w>": 5313, "kpabu</w>": 5314, "anambra</w>": 5315, "kumsi.</w>": 5316, "bundana</w>": 5317, "tɔɣisibu</w>": 5318, "tabilankpihi</w>": 5319, "aŋ": 5320, "senegal</w>": 5321, "ngwee</w>": 5322, "mɛɛ": 5323, "kobiga</w>": 5324, "shεm.</w>": 5325, "kasuliyili</w>": 5326, "yaɣa,</w>": 5327, "the": 5328, "(9": 5329, "m)</w>": 5330, "assistant</w>": 5331, "ge": 5332, "series</w>": 5333, "ε</w>": 5334, "nazuɣu</w>": 5335, "dar": 5336, "daalizama</w>": 5337, "potosí</w>": 5338, "yiɣisibu</w>": 5339, "summit</w>": 5340, "jaangbee</w>": 5341, "mɔŋdi</w>": 5342, "annabi</w>": 5343, "persian</w>": 5344, "\")</w>": 5345, "maʒini</w>": 5346, "tiɛ": 5347, "kiŋ": 5348, "bon": 5349, "biya</w>": 5350, "yula</w>": 5351, "baŋbu</w>": 5352, "region),</w>": 5353, "holding</w>": 5354, "khan</w>": 5355, "biha</w>": 5356, "giri</w>": 5357, "loo</w>": 5358, "paɣ": 5359, "2–": 5360, "gbana,</w>": 5361, "yɛlitɔɣa</w>": 5362, "shɛb'</w>": 5363, "ŋmaŋ</w>": 5364, "ab</w>": 5365, "chibiga</w>": 5366, "hussein</w>": 5367, "wuntia</w>": 5368, "argentina.</w>": 5369, "binchɛra</w>": 5370, "bihigu</w>": 5371, "ocean</w>": 5372, "italy.</w>": 5373, "ney</w>": 5374, "kpεma</w>": 5375, "japan</w>": 5376, "ming</w>": 5377, "yu'": 5378, "n-tuhi</w>": 5379, "ɣuni.</w>": 5380, "tal</w>": 5381, "pumpɔŋɔ,</w>": 5382, "tindaan": 5383, "pukparilim.</w>": 5384, "naɣilahi</w>": 5385, "face</w>": 5386, "mum</w>": 5387, "karimdi</w>": 5388, "benjamin</w>": 5389, "dɛn</w>": 5390, "kô": 5391, "sar": 5392, "luɣishɛŋa</w>": 5393, "louis</w>": 5394, "baa.</w>": 5395, "vans</w>": 5396, "so'": 5397, "lɔba</w>": 5398, "chɛchɛbunsi</w>": 5399, "wale</w>": 5400, "gbubila</w>": 5401, "salma</w>": 5402, "n-tahiri</w>": 5403, "santos</w>": 5404, "ِ": 5405, "nyɔni</w>": 5406, "bora</w>": 5407, "oven.</w>": 5408, "danquah</w>": 5409, "60": 5410, "sɔɣibu</w>": 5411, "varisiri</w>": 5412, "profit</w>": 5413, "amin</w>": 5414, "zuɣuri.</w>": 5415, "yeli</w>": 5416, "taaŋa</w>": 5417, "n-ti": 5418, "sciences</w>": 5419, "abuakwa</w>": 5420, "chama</w>": 5421, "luɣ’shɛli</w>": 5422, "ø": 5423, "t.</w>": 5424, "ninsal</w>": 5425, "cal": 5426, "kpa,</w>": 5427, "sonya</w>": 5428, "kpaŋ’</w>": 5429, "kpan": 5430, "kenya,</w>": 5431, "afriyie</w>": 5432, "gbai</w>": 5433, "24,</w>": 5434, "gadama</w>": 5435, "neen'</w>": 5436, "silim</w>": 5437, "tumtum": 5438, "tiŋ'zuɣu</w>": 5439, "daabi</w>": 5440, "asama</w>": 5441, "yi,</w>": 5442, "dintoli</w>": 5443, "sabu</w>": 5444, "sabali</w>": 5445, "ase</w>": 5446, "kamonaa</w>": 5447, "kpatu</w>": 5448, "years)</w>": 5449, "hachinima</w>": 5450, "alfred</w>": 5451, "wɔr’</w>": 5452, "ŋam</w>": 5453, "mike</w>": 5454, "tumdila</w>": 5455, "naawuni)</w>": 5456, "odaenathus</w>": 5457, "kwesi</w>": 5458, "bɛnkam</w>": 5459, "annan</w>": 5460, "sem": 5461, "yom.</w>": 5462, "kooms</w>": 5463, "zoomba</w>": 5464, "tell</w>": 5465, "ayariga</w>": 5466, "fre": 5467, "kumah</w>": 5468, "takɔbiri</w>": 5469, "hima</w>": 5470, "west,</w>": 5471, "parthian</w>": 5472, "burg</w>": 5473, "bam": 5474, "binnamda</w>": 5475, "buɣim,</w>": 5476, "ŋmana</w>": 5477, "minister\"</w>": 5478, "bol'ŋmɛriba</w>": 5479, "paɣisarili</w>": 5480, "waa.</w>": 5481, "ai.</w>": 5482, "n.</w>": 5483, "labour</w>": 5484, "demo": 5485, "water": 5486, "asa</w>": 5487, "gbarigu</w>": 5488, "tuhimi</w>": 5489, "tab'</w>": 5490, "llb</w>": 5491, "vihira</w>": 5492, "niŋbu.</w>": 5493, "amaŋmaŋ’</w>": 5494, "santa</w>": 5495, "ŋarima</w>": 5496, "zaɣim.</w>": 5497, "larigim</w>": 5498, "us$": 5499, "mercy</w>": 5500, "gabriel</w>": 5501, "kpakahili</w>": 5502, "ʒinahigu</w>": 5503, "den</w>": 5504, "fiɛbi</w>": 5505, "ce)</w>": 5506, "gbuɣinli</w>": 5507, "1980": 5508, "siɣiri</w>": 5509, "big</w>": 5510, "chɛru": 5511, "machɛli</w>": 5512, "maani.</w>": 5513, "maai.</w>": 5514, "“ku”</w>": 5515, "portugal</w>": 5516, "daadam": 5517, "bal": 5518, "action</w>": 5519, "py": 5520, "nandahima</w>": 5521, "nandana</w>": 5522, "zanduunaa</w>": 5523, "wulin</w>": 5524, "pili": 5525, "naɣi": 5526, "yoori</w>": 5527, "(2012)</w>": 5528, "risi</w>": 5529, "darigiri</w>": 5530, "kpalim": 5531, "it</w>": 5532, "leadership</w>": 5533, "baɣiyuya</w>": 5534, "1955</w>": 5535, "eu</w>": 5536, "ward</w>": 5537, "isi</w>": 5538, "piinila</w>": 5539, "yɛlmaŋli</w>": 5540, "bam</w>": 5541, "yobu</w>": 5542, "_": 5543, "muhammadu</w>": 5544, "amani</w>": 5545, "anii.</w>": 5546, "doɣim</w>": 5547, "achiika!</w>": 5548, "nyura</w>": 5549, "yoya</w>": 5550, "ɡ": 5551, "dolibu</w>": 5552, "wuɣiri</w>": 5553, "chili</w>": 5554, "nyɔbu</w>": 5555, "noli,</w>": 5556, "moliya</w>": 5557, "police</w>": 5558, "naaibu</w>": 5559, "niriba,</w>": 5560, "pirigibu</w>": 5561, "duu": 5562, "boy</w>": 5563, "rahimma</w>": 5564, "danger</w>": 5565, "information</w>": 5566, "2002,</w>": 5567, "kpalaŋa</w>": 5568, "taɣiya</w>": 5569, "polytechnic</w>": 5570, "jεndi</w>": 5571, "iraq</w>": 5572, "kilometres</w>": 5573, "paê": 5574, "toondana,</w>": 5575, "),ka</w>": 5576, "binkɔb'</w>": 5577, "sabira.</w>": 5578, "tɔbu.</w>": 5579, "bolo</w>": 5580, "kulis’</w>": 5581, "zam": 5582, "16,</w>": 5583, "engineer</w>": 5584, "biɛɣ'</w>": 5585, "deera</w>": 5586, "kobi</w>": 5587, "mass</w>": 5588, "sapaɣu</w>": 5589, "kotomsi</w>": 5590, "l'": 5591, "1st</w>": 5592, "waliginsim</w>": 5593, "o-": 5594, "1994,</w>": 5595, "tôêisi</w>": 5596, "kpan</w>": 5597, "ngama</w>": 5598, "awei</w>": 5599, "binneembihi</w>": 5600, "pp</w>": 5601, "rainforest</w>": 5602, "abdul-": 5603, "(world</w>": 5604, "zaana</w>": 5605, "ŋumaŋuma</w>": 5606, "madol</w>": 5607, "liriti</w>": 5608, "matuuka</w>": 5609, "(yuuni</w>": 5610, "thern</w>": 5611, "chɛhi</w>": 5612, "bachi": 5613, "lɛbigibu</w>": 5614, "battle</w>": 5615, "daalikauli</w>": 5616, "zaɣ'a</w>": 5617, "siri</w>": 5618, "nudiriti</w>": 5619, "waɣi": 5620, "liɣiri.</w>": 5621, "wɔbiri</w>": 5622, "kpalimla</w>": 5623, "(the</w>": 5624, "kpansi</w>": 5625, "kɔbi</w>": 5626, "yεl’</w>": 5627, "east,</w>": 5628, "akropong</w>": 5629, "n-gbubi</w>": 5630, "nebraska</w>": 5631, "dynasty</w>": 5632, "chiri</w>": 5633, "toontibo</w>": 5634, "sir</w>": 5635, "yεlimuɣisira</w>": 5636, "san’</w>": 5637, "tiliginsim</w>": 5638, "dimdi</w>": 5639, "mɛbu,</w>": 5640, "e)</w>": 5641, "situr’</w>": 5642, "biden</w>": 5643, "soya,</w>": 5644, "cheei</w>": 5645, "bri": 5646, "gula</w>": 5647, "metric</w>": 5648, "muslinnim’</w>": 5649, "n-lɛ": 5650, "ayopɔin,</w>": 5651, "16th</w>": 5652, "ken</w>": 5653, "kɔɣu</w>": 5654, "athi</w>": 5655, "premi": 5656, "jamdi</w>": 5657, "gushie-naa</w>": 5658, "yaa": 5659, "êili</w>": 5660, "nooŋa</w>": 5661, "s'</w>": 5662, "diŋ</w>": 5663, "agricultural</w>": 5664, "kanna.</w>": 5665, "yuɣu</w>": 5666, "zaɣ</w>": 5667, "kpalan": 5668, "kɔb": 5669, "onomy\"</w>": 5670, "sɔya</w>": 5671, "euro</w>": 5672, "don</w>": 5673, "‘’": 5674, "shâåa,</w>": 5675, "duno": 5676, "environmental</w>": 5677, "1996,</w>": 5678, "thi": 5679, "(shs</w>": 5680, "binkumda</w>": 5681, "buyi,</w>": 5682, "ap</w>": 5683, "gupanarigu</w>": 5684, "declaration</w>": 5685, "nyâmi</w>": 5686, "ninkurugu</w>": 5687, "n-lo</w>": 5688, "biâligu</w>": 5689, "pahi": 5690, "kpiŋ": 5691, "smith</w>": 5692, "dor": 5693, "gbɛɣu</w>": 5694, "ni”</w>": 5695, "suhuyini</w>": 5696, "dinnima</w>": 5697, "korle</w>": 5698, "adibo</w>": 5699, "zaå": 5700, "ninsalinima,</w>": 5701, "nyaaåa,</w>": 5702, "jintoriba</w>": 5703, "kpuɣ’</w>": 5704, "(ŋun</w>": 5705, "pumpoŋo</w>": 5706, "limi</w>": 5707, "y,</w>": 5708, "tila</w>": 5709, "sanna</w>": 5710, "afe": 5711, "officer\"</w>": 5712, "maɣisi</w>": 5713, "dabaayi</w>": 5714, "library</w>": 5715, "kpaɣi": 5716, "gam</w>": 5717, "bamba</w>": 5718, "miɛbu</w>": 5719, "gooi</w>": 5720, "piya</w>": 5721, "kpalim.</w>": 5722, "n-dira.</w>": 5723, "nyɔɣi</w>": 5724, "abe</w>": 5725, "daba.</w>": 5726, "jonathan</w>": 5727, "sagani</w>": 5728, "pam": 5729, "gun": 5730, "kpaɣiʒiɛɣu</w>": 5731, "master": 5732, "malfa</w>": 5733, "ŋ-ŋɔ</w>": 5734, "yɛlima</w>": 5735, "yemeni</w>": 5736, "naala</w>": 5737, "naara</w>": 5738, "messi</w>": 5739, "planning</w>": 5740, "his</w>": 5741, "abigail</w>": 5742, "damba.</w>": 5743, "karimbaani.</w>": 5744, "kpihiri</w>": 5745, "yԑ": 5746, "d'": 5747, "s),</w>": 5748, "nachimbila</w>": 5749, "dimini</w>": 5750, "nyaɣisim.</w>": 5751, "1960,</w>": 5752, "labi.</w>": 5753, "ni,ka</w>": 5754, "history</w>": 5755, "ŋarili</w>": 5756, "pɔnchi</w>": 5757, "wua</w>": 5758, "mam": 5759, "asturias</w>": 5760, "dahima</w>": 5761, "haʒi</w>": 5762, "tiŋkpaŋ</w>": 5763, "n-sabi</w>": 5764, "viɣu</w>": 5765, "imam</w>": 5766, "fir": 5767, "ɣulana</w>": 5768, "4–": 5769, "tuha</w>": 5770, "bahi": 5771, "holy</w>": 5772, "wuhira</w>": 5773, "kini</w>": 5774, "kari-naa</w>": 5775, "chamiya</w>": 5776, "yim,</w>": 5777, "binshâli</w>": 5778, "em</w>": 5779, "yinyaa</w>": 5780, "na'": 5781, "mahamaru</w>": 5782, "alahiri</w>": 5783, "wahala.</w>": 5784, "zaham</w>": 5785, "nimohi</w>": 5786, "investment</w>": 5787, "n-deeri</w>": 5788, "du-": 5789, "sutura</w>": 5790, "wodu": 5791, "amidu</w>": 5792, "azuɣu</w>": 5793, "viigi</w>": 5794, "bilɛɣu</w>": 5795, "fɔɣu</w>": 5796, "kɔnyuri</w>": 5797, "ʒɛɣu</w>": 5798, "sandaani</w>": 5799, "pality,</w>": 5800, "babilɔn</w>": 5801, "nyaya</w>": 5802, "ten": 5803, "du.</w>": 5804, "gbarigiri</w>": 5805, "kanlili</w>": 5806, "jila</w>": 5807, "books</w>": 5808, "daliya</w>": 5809, "sari</w>": 5810, "mooni</w>": 5811, "zaashee.</w>": 5812, "bahila</w>": 5813, "%": 5814, "alikama</w>": 5815, "ahanta</w>": 5816, "yidan</w>": 5817, "sosu</w>": 5818, "kɔbisinii</w>": 5819, "joyce</w>": 5820, "kumbiɛɣu</w>": 5821, "electoral</w>": 5822, "scien": 5823, "1999,</w>": 5824, "ɣirila</w>": 5825, "toori</w>": 5826, "luɣuli</w>": 5827, "1959</w>": 5828, "scheme</w>": 5829, "doliya</w>": 5830, "mag": 5831, "salo.</w>": 5832, "election</w>": 5833, "tindaan</w>": 5834, "zaɣiyini</w>": 5835, "nabiyɔŋ</w>": 5836, "niiya</w>": 5837, "jε": 5838, "ŋmɛbo</w>": 5839, "yɛm.</w>": 5840, "dali,yuuni</w>": 5841, "pirinti</w>": 5842, "zuɣulana.</w>": 5843, "australia</w>": 5844, "magic</w>": 5845, "dominic</w>": 5846, "vicker</w>": 5847, "tomo</w>": 5848, "2010.</w>": 5849, "dibaanu</w>": 5850, "ziliŋ</w>": 5851, "ler</w>": 5852, "miligi</w>": 5853, "kparibu</w>": 5854, "abdullah</w>": 5855, "moni</w>": 5856, "bidibilim</w>": 5857, "sayibu</w>": 5858, "tibidarigibo</w>": 5859, "force</w>": 5860, "1947</w>": 5861, "sili</w>": 5862, "yaanga</w>": 5863, "architecture</w>": 5864, "12": 5865, "10,000</w>": 5866, "namni</w>": 5867, "\"ghana</w>": 5868, "corporation</w>": 5869, "proje": 5870, "toon'</w>": 5871, "siasa</w>": 5872, "dundona</w>": 5873, "ariʒichi</w>": 5874, "labrador</w>": 5875, "nyaaŋga</w>": 5876, "alaama</w>": 5877, "alaaba</w>": 5878, "ninsarinsi</w>": 5879, "binshεli</w>": 5880, "sq</w>": 5881, "wuni.</w>": 5882, "jɛri</w>": 5883, "zenobia</w>": 5884, "obu": 5885, "obama</w>": 5886, "bobili</w>": 5887, "apolasa</w>": 5888, "liverpool</w>": 5889, "luŋsi</w>": 5890, "zimsim</w>": 5891, "wumsim</w>": 5892, "commercial</w>": 5893, "naya-": 5894, "194": 5895, "dakoli</w>": 5896, "piɛma</w>": 5897, "n-lɛbi</w>": 5898, "vice</w>": 5899, "kpalansi</w>": 5900, "wulin": 5901, "yiko,</w>": 5902, "malaikanim’</w>": 5903, "kawana,</w>": 5904, "victoria</w>": 5905, "yaakaza</w>": 5906, "magna</w>": 5907, "bolga</w>": 5908, "hadiza</w>": 5909, "yiɣisi.</w>": 5910, "mmaŋ’</w>": 5911, "matuka</w>": 5912, "1952</w>": 5913, "tain</w>": 5914, "kore</w>": 5915, "(di</w>": 5916, "kɔhimma</w>": 5917, "vin": 5918, "ankomah</w>": 5919, "pri": 5920, "eng": 5921, "time</w>": 5922, "pulini.</w>": 5923, "nyuli.</w>": 5924, "ninyula</w>": 5925, "gadabsi:</w>": 5926, "but</w>": 5927, "line</w>": 5928, "lla</w>": 5929, "liɣiri,</w>": 5930, "ziliji</w>": 5931, "yila,</w>": 5932, "ablekuma</w>": 5933, "ok": 5934, "naɣla</w>": 5935, "lou": 5936, "der": 5937, "swedru</w>": 5938, "manso</w>": 5939, "aa</w>": 5940, "pirigili.</w>": 5941, "rahim</w>": 5942, "ʒmɛ</w>": 5943, "shԑ": 5944, "nnim’</w>": 5945, "mabia,</w>": 5946, "sirigi</w>": 5947, "ster": 5948, "awɔyi</w>": 5949, "dɔriti.</w>": 5950, "koforidua</w>": 5951, "ur": 5952, "36</w>": 5953, "suhusaɣingu</w>": 5954, "bilɛ": 5955, "han": 5956, "kpaari</w>": 5957, "class</w>": 5958, "2005.</w>": 5959, "nolɔri</w>": 5960, "suhi": 5961, "alepile</w>": 5962, "buɣu</w>": 5963, "strategy</w>": 5964, "ashi": 5965, "barigu</w>": 5966, "viε": 5967, "lim.</w>": 5968, "military</w>": 5969, "gas</w>": 5970, "samban’</w>": 5971, "degree,</w>": 5972, "shԑm</w>": 5973, "school\"</w>": 5974, "ú": 5975, "a\"</w>": 5976, "fii": 5977, "laɣimla</w>": 5978, "ŋun": 5979, "fante</w>": 5980, "wana</w>": 5981, "suhupiɛlli.</w>": 5982, "°": 5983, "kumda</w>": 5984, "jewish</w>": 5985, "wô": 5986, "sɔɣi.</w>": 5987, "nintam</w>": 5988, "primary": 5989, "work</w>": 5990, "gibu</w>": 5991, "1976,</w>": 5992, "suɣilo</w>": 5993, "viɛla.</w>": 5994, "buɣi.</w>": 5995, "rak</w>": 5996, "star": 5997, "nɛma,</w>": 5998, "italian</w>": 5999, "th,</w>": 6000, "od</w>": 6001, "(2010)</w>": 6002, "ashib": 6003, "yɛli.</w>": 6004, "goondahi</w>": 6005, "defence</w>": 6006, "lahiʒibu</w>": 6007, "resources</w>": 6008, "bandɔɣu</w>": 6009, "managing</w>": 6010, "gola</w>": 6011, "42</w>": 6012, "44</w>": 6013, "ɣirili</w>": 6014, "diriba</w>": 6015, "ments</w>": 6016, "n-kana</w>": 6017, "anduni": 6018, "chihira.</w>": 6019, "zala</w>": 6020, "maría</w>": 6021, "luis</w>": 6022, "nyeri": 6023, "palestine</w>": 6024, "teacher</w>": 6025, "tusa": 6026, "yomyom.</w>": 6027, "somo</w>": 6028, "nyԑ": 6029, "kpee,</w>": 6030, "are</w>": 6031, "sabla</w>": 6032, "<": 6033, "north": 6034, "daa.</w>": 6035, "gbaami</w>": 6036, "society</w>": 6037, "mɔɣu.</w>": 6038, "eri": 6039, "15th</w>": 6040, "ʒinani</w>": 6041, "tuuli.</w>": 6042, "kamani": 6043, "nama,</w>": 6044, "1988,</w>": 6045, "yor": 6046, "abubakari</w>": 6047, "ay": 6048, "zilisi</w>": 6049, "mayaankalɛ": 6050, "kpambali</w>": 6051, "konadu</w>": 6052, "canada.</w>": 6053, "amerado</w>": 6054, "saladin</w>": 6055, "bap": 6056, "yinima</w>": 6057, "25": 6058, "100,</w>": 6059, "kpaligu</w>": 6060, "lao</w>": 6061, "tumanima</w>": 6062, "yoo": 6063, "katini</w>": 6064, "satara</w>": 6065, "bahi,</w>": 6066, "assyrian</w>": 6067, "buli</w>": 6068, "“bi”</w>": 6069, "benimi</w>": 6070, "kalima</w>": 6071, "army</w>": 6072, "siɣimsiɣim</w>": 6073, "waa,</w>": 6074, "im</w>": 6075, "palli.</w>": 6076, "ballon</w>": 6077, "doctor</w>": 6078, "prote": 6079, "nyarila</w>": 6080, "surila</w>": 6081, "abdul-aziz</w>": 6082, "kpem</w>": 6083, "bayili</w>": 6084, "pihim</w>": 6085, "yuugi</w>": 6086, "enugu</w>": 6087, "luêushâli</w>": 6088, "teegi</w>": 6089, "dim’</w>": 6090, "dari.</w>": 6091, "\"degree</w>": 6092, "piɛligu</w>": 6093, "yaɣisi</w>": 6094, "gul’</w>": 6095, "maåa,</w>": 6096, "chochi</w>": 6097, "kambɔnsi</w>": 6098, "ofori</w>": 6099, "marquin": 6100, "29": 6101, "bohi</w>": 6102, "dohini</w>": 6103, "zohɛ</w>": 6104, "wayo</w>": 6105, "yεlli</w>": 6106, "susan</w>": 6107, "sapashininima</w>": 6108, "musah</w>": 6109, "super": 6110, "king": 6111, "n-looi</w>": 6112, "aji</w>": 6113, "kpiɔŋ": 6114, "ŋum</w>": 6115, "hen": 6116, "pahirila</w>": 6117, "maana.</w>": 6118, "tahama</w>": 6119, "alahachi</w>": 6120, "federal</w>": 6121, "piɛ’</w>": 6122, "doya.</w>": 6123, "yab’</w>": 6124, "tabli</w>": 6125, "chester</w>": 6126, "pili.</w>": 6127, "bachiniŋ": 6128, "anderson</w>": 6129, "øi": 6130, "sah</w>": 6131, "dulizu": 6132, "kulibɔna</w>": 6133, "kobiri</w>": 6134, "bin'</w>": 6135, "kurumbuni</w>": 6136, "cha</w>": 6137, "memorial</w>": 6138, "tamla</w>": 6139, "on,</w>": 6140, "hor": 6141, "baligiri</w>": 6142, "chee": 6143, "ltd</w>": 6144, "sankarayili": 6145, "kpiya</w>": 6146, "aliyu</w>": 6147, "mila</w>": 6148, "oki</w>": 6149, "1956</w>": 6150, "piliya</w>": 6151, "offices</w>": 6152, "p)</w>": 6153, "ck": 6154, "dashee</w>": 6155, "luɣ'shɛŋa</w>": 6156, "isil</w>": 6157, "super</w>": 6158, "hibu.</w>": 6159, "2011.</w>": 6160, "yuri": 6161, "bɔlŋmɛri</w>": 6162, "zaŋ-ti</w>": 6163, "tama</w>": 6164, "n-deei</w>": 6165, "cents</w>": 6166, "kpɛhiri</w>": 6167, "sau": 6168, "mɔɣa</w>": 6169, "ou": 6170, "article</w>": 6171, "1949</w>": 6172, "n-wɔ": 6173, "apɔin</w>": 6174, "aidoo</w>": 6175, "delta</w>": 6176, "lim": 6177, "drama</w>": 6178, "tɔra</w>": 6179, "sɔli</w>": 6180, "wa.</w>": 6181, "tano</w>": 6182, "yiŋ'</w>": 6183, "legislation</w>": 6184, "abu.</w>": 6185, "ned</w>": 6186, "christopher</w>": 6187, "biɛhim</w>": 6188, "tiŋ-": 6189, "niribu</w>": 6190, "doliba</w>": 6191, "naɣibiɛɣu</w>": 6192, "naɣibila</w>": 6193, "cupro-nickel</w>": 6194, "è": 6195, "law.</w>": 6196, "2–1</w>": 6197, "kpaŋ.</w>": 6198, "shihira</w>": 6199, "nin-": 6200, "bukari</w>": 6201, "gundo</w>": 6202, "margaret</w>": 6203, "zuɣusuŋ</w>": 6204, "sixth</w>": 6205, "polo,": 6206, "under</w>": 6207, "achiika,</w>": 6208, "m-pahiri</w>": 6209, "konko</w>": 6210, "daankaya</w>": 6211, "daaŋa</w>": 6212, "nuu.</w>": 6213, "1938</w>": 6214, "viânyâla</w>": 6215, "tiå’</w>": 6216, "alɔ": 6217, "yɛltɔɣ'</w>": 6218, "wɔrizɔ": 6219, "common</w>": 6220, "ayopɔi</w>": 6221, "bakoi</w>": 6222, "hara</w>": 6223, "waamaa</w>": 6224, "tripoli</w>": 6225, "dɛm</w>": 6226, "chimsi</w>": 6227, "timsa,</w>": 6228, "administrative</w>": 6229, "tar": 6230, "weah</w>": 6231, "dundoŋ</w>": 6232, "lansi</w>": 6233, "binchɛ": 6234, "bawa</w>": 6235, "taawa</w>": 6236, "jɛrigu.</w>": 6237, "tiligi.</w>": 6238, "dilan’</w>": 6239, "kpaå": 6240, "ame": 6241, "’a</w>": 6242, "alahiziba</w>": 6243, "ɣiri.</w>": 6244, "chε": 6245, "filistia</w>": 6246, "dukpina</w>": 6247, "ai,</w>": 6248, "ginda.</w>": 6249, "=": 6250, "(20": 6251, "lɛɛ</w>": 6252, "neesim.</w>": 6253, "buyopɔin</w>": 6254, "naŋ": 6255, "puli.</w>": 6256, "n-ʒi</w>": 6257, "dira,</w>": 6258, "pali": 6259, "tiɣisi</w>": 6260, "\"ka</w>": 6261, "shɛba,</w>": 6262, "29,</w>": 6263, "katiŋ</w>": 6264, "22,</w>": 6265, "gir": 6266, "vaaros</w>": 6267, "n-gindi</w>": 6268, "binŋmahi</w>": 6269, "ɛm</w>": 6270, "rim</w>": 6271, "wɔi</w>": 6272, "hɛrɔ": 6273, "َ": 6274, "johannesburg</w>": 6275, "2004.</w>": 6276, "silva</w>": 6277, "yɛmo-": 6278, "yeei</w>": 6279, "samu": 6280, "woligiri</w>": 6281, "yuun'": 6282, "aleepile</w>": 6283, "ayika</w>": 6284, "teeg’</w>": 6285, "saint-ger": 6286, "navrongo</w>": 6287, "oxford</w>": 6288, "300</w>": 6289, "4)</w>": 6290, "“di”</w>": 6291, "timdi</w>": 6292, "kpalua</w>": 6293, "puhirili</w>": 6294, "\"university</w>": 6295, "gomoa</w>": 6296, "maligumaaniba</w>": 6297, "savannah</w>": 6298, "yidan’</w>": 6299, "id": 6300, "nyinyɛri</w>": 6301, "gbubili</w>": 6302, "tampe-": 6303, "pa,</w>": 6304, "sintaks</w>": 6305, "yâba</w>": 6306, "yiêisi</w>": 6307, "n-doya</w>": 6308, "sara.</w>": 6309, "kur": 6310, "timi</w>": 6311, "1000</w>": 6312, "suhuyiɣisili</w>": 6313, "1%</w>": 6314, "gomo": 6315, "1991,</w>": 6316, "movement</w>": 6317, "kalinli.</w>": 6318, "binyε": 6319, "buni,</w>": 6320, "girls'</w>": 6321, "n-lu</w>": 6322, "gbariga</w>": 6323, "dagboŋ</w>": 6324, "by": 6325, "yupaa</w>": 6326, "buni.</w>": 6327, "ansah</w>": 6328, "ŋo,</w>": 6329, "lar": 6330, "wuntizɔ": 6331, "collins</w>": 6332, "armed</w>": 6333, "ship</w>": 6334, "00": 6335, "laɣ'gbaŋ</w>": 6336, "bimbirili</w>": 6337, "sambanni</w>": 6338, "kolivaai</w>": 6339, "fɛ": 6340, "bakɔ": 6341, "mm</w>": 6342, "muɣisira</w>": 6343, "diɛmbu</w>": 6344, "1970": 6345, "gbee</w>": 6346, "an,</w>": 6347, "anfaani.</w>": 6348, "m'</w>": 6349, "knights</w>": 6350, "mining</w>": 6351, "n-kari</w>": 6352, "100": 6353, "aibu</w>": 6354, "gɔ</w>": 6355, "13th</w>": 6356, "domestic</w>": 6357, "ŋni</w>": 6358, "zon": 6359, "tooka": 6360, "dabi</w>": 6361, "tonnes\"</w>": 6362, "51</w>": 6363, "major</w>": 6364, "ɣaba</w>": 6365, "shini</w>": 6366, "cem": 6367, "daniels</w>": 6368, "omaŋmaŋ’</w>": 6369, "nɔri</w>": 6370, "ade": 6371, "dagbon</w>": 6372, "ejisu</w>": 6373, "gyan</w>": 6374, "madina</w>": 6375, "million,</w>": 6376, "paati": 6377, "n-ʒili</w>": 6378, "publi": 6379, "zaana.</w>": 6380, "polo,eastern</w>": 6381, "ves</w>": 6382, "kpuri</w>": 6383, "timbu</w>": 6384, "š": 6385, "11,</w>": 6386, "pndc</w>": 6387, "were</w>": 6388, "1979.</w>": 6389, "vog": 6390, "tiŋgbanni.</w>": 6391, "karimba,</w>": 6392, "wah</w>": 6393, "dale</w>": 6394, "lor": 6395, "kalo</w>": 6396, "ŋoloŋo</w>": 6397, "mbapp": 6398, "diya</w>": 6399, "men</w>": 6400, "kpela</w>": 6401, "wala.</w>": 6402, "men's</w>": 6403, "shi</w>": 6404, "mann</w>": 6405, "ayiyi</w>": 6406, "chinchina</w>": 6407, "acc": 6408, "napoŋ</w>": 6409, "gen": 6410, "tuhuli</w>": 6411, "federation</w>": 6412, "suhugarigu</w>": 6413, "ethiopia</w>": 6414, "ŋma.</w>": 6415, "yada</w>": 6416, "bochaa</w>": 6417, "tia,</w>": 6418, "yâli": 6419, "ste": 6420, "kohimma</w>": 6421, "awards.</w>": 6422, "geoffrey</w>": 6423, "gbin": 6424, "bury</w>": 6425, "daabu</w>": 6426, "dabilim</w>": 6427, "naanzua</w>": 6428, "mer</w>": 6429, "bill</w>": 6430, "boma,</w>": 6431, "chaɣisi</w>": 6432, "akan</w>": 6433, "yino": 6434, "gonaate</w>": 6435, "sasabiriba</w>": 6436, "theresa</w>": 6437, "machɛligu,</w>": 6438, "hal’</w>": 6439, "dabisili.</w>": 6440, "list</w>": 6441, "kɔbisi</w>": 6442, "varisi</w>": 6443, "sarigi</w>": 6444, "chahi</w>": 6445, "wasi</w>": 6446, "nyaɣi</w>": 6447, "wolfenden</w>": 6448, "nayili,</w>": 6449, "soɣi</w>": 6450, "list.</w>": 6451, "bol'ŋmɛra.</w>": 6452, "zaani,</w>": 6453, "gbali": 6454, "nia,</w>": 6455, "deerila</w>": 6456, "ʒemana</w>": 6457, "ŋma": 6458, "accounting</w>": 6459, "piili</w>": 6460, "n-tu</w>": 6461, "dɔribimbira</w>": 6462, "zambian</w>": 6463, "borimi</w>": 6464, "daabiligim</w>": 6465, "ʒim.</w>": 6466, "yimaŋa</w>": 6467, "nyaan</w>": 6468, "k,</w>": 6469, "dua</w>": 6470, "bang": 6471, "naŋgban’</w>": 6472, "administration\"</w>": 6473, "(7)</w>": 6474, "tahimi</w>": 6475, "kalahi</w>": 6476, "daabihi.</w>": 6477, "ato</w>": 6478, "debut</w>": 6479, "kwahu</w>": 6480, "mɔɣi</w>": 6481, "mɔɣisi</w>": 6482, "tabilan": 6483, "n-fari</w>": 6484, "der</w>": 6485, "zaɣiyino</w>": 6486, "biliyɔŋ</w>": 6487, "daŋa</w>": 6488, "not</w>": 6489, "akoto</w>": 6490, "eric</w>": 6491, "hat-trick</w>": 6492, "gbanjo": 6493, "sekyere</w>": 6494, "ŋmaagi</w>": 6495, "mond</w>": 6496, "wil": 6497, "wun</w>": 6498, "km)</w>": 6499, "ac": 6500, "dam.</w>": 6501, "kɔŋdi</w>": 6502, "nohi</w>": 6503, "hos</w>": 6504, "tiŋbani</w>": 6505, "kachɛ": 6506, "quaye</w>": 6507, "chɛbisi</w>": 6508, "gi,</w>": 6509, "wuhi,</w>": 6510, "bc)</w>": 6511, "tom.</w>": 6512, "askia</w>": 6513, "wuntizɔriba</w>": 6514, "7)</w>": 6515, "dagbaŋ'": 6516, "siliga</w>": 6517, "zanchaŋ</w>": 6518, "sag": 6519, "metro</w>": 6520, "ramadan</w>": 6521, "kpɛri": 6522, "kɔbisiwɔi</w>": 6523, "boku</w>": 6524, "mokpala</w>": 6525, "gbana.</w>": 6526, "maliya</w>": 6527, "koba</w>": 6528, "amo": 6529, "gaana</w>": 6530, "defense</w>": 6531, "shinshɛɣu</w>": 6532, "ly": 6533, "kpiɛri</w>": 6534, "sheei,</w>": 6535, "child</w>": 6536, "“di</w>": 6537, "sib": 6538, "taara</w>": 6539, "anii,</w>": 6540, "ʒiishee</w>": 6541, "(ghana)</w>": 6542, "sociology</w>": 6543, "solomon</w>": 6544, "gol’</w>": 6545, "yini": 6546, "mah": 6547, "system</w>": 6548, "gumani</w>": 6549, "verde</w>": 6550, "bie</w>": 6551, "kufour</w>": 6552, "suman</w>": 6553, "duuma.</w>": 6554, "unes": 6555, "laakum</w>": 6556, "berg</w>": 6557, "josé</w>": 6558, "march,</w>": 6559, "n-chihiri</w>": 6560, "yiko.</w>": 6561, "amerika</w>": 6562, "yili": 6563, "maŋsi</w>": 6564, "afcfta</w>": 6565, "bɔmma</w>": 6566, "sunsuni,</w>": 6567, "1958,</w>": 6568, "shɛhira.</w>": 6569, "n-yi": 6570, ",o</w>": 6571, "mid": 6572, "takɔriti</w>": 6573, "booli</w>": 6574, "biriba</w>": 6575, "gd": 6576, "fellow</w>": 6577, "1946</w>": 6578, "buɣisibu,</w>": 6579, "bibiɛhi</w>": 6580, "hotel.</w>": 6581, "kara,</w>": 6582, "(p": 6583, "nyuhi</w>": 6584, "18th</w>": 6585, "17,</w>": 6586, "hɛ": 6587, "artificial</w>": 6588, "wara</w>": 6589, "ghanai": 6590, "plan</w>": 6591, "dagban'</w>": 6592, "barilim</w>": 6593, "moɣu</w>": 6594, "deehi</w>": 6595, "stre": 6596, "laɣinda</w>": 6597, "kpira</w>": 6598, "m-paɣiri</w>": 6599, "news</w>": 6600, "menk</w>": 6601, "bankaŋ</w>": 6602, "atalaata</w>": 6603, "laati</w>": 6604, "laara.</w>": 6605, "(tatu": 6606, "literary</w>": 6607, "tigbani</w>": 6608, "liɛm</w>": 6609, "kal": 6610, "montane</w>": 6611, "busia</w>": 6612, "jacob</w>": 6613, "kobina</w>": 6614, "kobilisi</w>": 6615, "lani</w>": 6616, "jɛrusalɛm": 6617, "tankpaɣu,</w>": 6618, "paɣaba.</w>": 6619, "naŋgbankpeeni</w>": 6620, "yɛli:</w>": 6621, "26,</w>": 6622, "buŋ’</w>": 6623, "fall</w>": 6624, "n-chɛ": 6625, "bihi": 6626, "vu</w>": 6627, "kura,</w>": 6628, "journalism</w>": 6629, "\"fourth</w>": 6630, "reich": 6631, "mam</w>": 6632, "ŋdi</w>": 6633, "daanfaani.</w>": 6634, "nyaansi</w>": 6635, "nabipuɣinsi</w>": 6636, "mon": 6637, "gumaana</w>": 6638, "zuɣʋ</w>": 6639, "n-ʒini</w>": 6640, "dazuli</w>": 6641, "tirakoma</w>": 6642, "yiɣisiri</w>": 6643, "eri</w>": 6644, "kulo</w>": 6645, "hammond</w>": 6646, "zaligunim’</w>": 6647, "daanbalo</w>": 6648, "liya</w>": 6649, "banchi,</w>": 6650, "savanna</w>": 6651, "abdulai,</w>": 6652, "our</w>": 6653, "november,</w>": 6654, "zosim": 6655, "án</w>": 6656, "kpatuya</w>": 6657, "tulim.</w>": 6658, "duli.</w>": 6659, "suligu</w>": 6660, "ako</w>": 6661, "bukaata,</w>": 6662, "ashiya</w>": 6663, "b'</w>": 6664, "bukhari</w>": 6665, "bira.</w>": 6666, "gbampiɛ": 6667, "daaa</w>": 6668, "øiri</w>": 6669, "duŋ</w>": 6670, "ningbuŋ</w>": 6671, "nahingu</w>": 6672, "melanie</w>": 6673, "ɣuri</w>": 6674, "marafa</w>": 6675, "cc": 6676, "buchi</w>": 6677, "piirila</w>": 6678, "yɛlimuɣisira.</w>": 6679, "yεlimaŋli</w>": 6680, "bachinamdili</w>": 6681, "him.</w>": 6682, "mont</w>": 6683, "sanitary</w>": 6684, "paliti</w>": 6685, "vihigu.</w>": 6686, "binŋmaa</w>": 6687, "kum.</w>": 6688, "dome</w>": 6689, "chairperson</w>": 6690, "half</w>": 6691, "ó": 6692, "county</w>": 6693, "kente</w>": 6694, "zoontali</w>": 6695, "sintani</w>": 6696, "boda</w>": 6697, "puma</w>": 6698, "chiri": 6699, "lebigi</w>": 6700, "ɣiriba</w>": 6701, "peoples</w>": 6702, "play</w>": 6703, "dala</w>": 6704, "adegbite</w>": 6705, "uni,</w>": 6706, "laribaawa</w>": 6707, "decem": 6708, "byzantine</w>": 6709, "nyarko</w>": 6710, "n-suhi</w>": 6711, "vihigu,</w>": 6712, "niŋli</w>": 6713, "software</w>": 6714, "kawaan’</w>": 6715, "birigu</w>": 6716, "manager\"</w>": 6717, "neen": 6718, "lɛla</w>": 6719, "studies,</w>": 6720, "(10": 6721, "yiriŋ.</w>": 6722, "del</w>": 6723, "(5": 6724, "nwo": 6725, "sujee</w>": 6726, "1945</w>": 6727, "net": 6728, "life</w>": 6729, "piriti</w>": 6730, "queen</w>": 6731, "asiamah</w>": 6732, "sabiya</w>": 6733, "tuɣu</w>": 6734, "suɣiri</w>": 6735, "bilisi</w>": 6736, "aurelian</w>": 6737, "lɔɣi</w>": 6738, "ʒaamani</w>": 6739, "nantɔŋ</w>": 6740, "bantabiga</w>": 6741, "3%</w>": 6742, "kpaan'": 6743, "\"eighth</w>": 6744, "aziz</w>": 6745, "gust</w>": 6746, "gutulu</w>": 6747, "bin’shâli</w>": 6748, "sal'</w>": 6749, "mary": 6750, "chiriga</w>": 6751, "yimtali</w>": 6752, "g-": 6753, "zuɣusa": 6754, "\",": 6755, "hepatitis</w>": 6756, "yiɣibu</w>": 6757, "lt": 6758, "n-nyu</w>": 6759, "cypress</w>": 6760, "\"chief</w>": 6761, "gbuŋ</w>": 6762, "barak</w>": 6763, "bright</w>": 6764, "2001,</w>": 6765, "kpena</w>": 6766, "yiɣisili</w>": 6767, "bɔɣisapima</w>": 6768, "brymo</w>": 6769, "knust</w>": 6770, "my": 6771, "sahashâåa</w>": 6772, "aŋkara</w>": 6773, "yaan-": 6774, "issa</w>": 6775, "gushee</w>": 6776, "cyrus</w>": 6777, "dy</w>": 6778, "pomaa</w>": 6779, "yɛrigi</w>": 6780, "shatta</w>": 6781, "yoruba</w>": 6782, "tuumbiɛri</w>": 6783, "“pa”</w>": 6784, "ofosu-": 6785, "kumda.</w>": 6786, "kpali": 6787, "binbila</w>": 6788, "bipuɣisi</w>": 6789, "ü": 6790, "\"international</w>": 6791, "(6": 6792, "gɔbu</w>": 6793, "presby</w>": 6794, "5th</w>": 6795, "malli</w>": 6796, "fs</w>": 6797, "awɔi,</w>": 6798, "sɔɣu</w>": 6799, "ata": 6800, "way</w>": 6801, "taɣimalisi</w>": 6802, "lari": 6803, "n-luhi</w>": 6804, "biuŋ</w>": 6805, "yaannim’</w>": 6806, "awards,</w>": 6807, "amenfi</w>": 6808, "rock</w>": 6809, "tuumbaŋsim</w>": 6810, "●": 6811, "grace</w>": 6812, "binnɛ": 6813, "vote</w>": 6814, "speci": 6815, "belgian</w>": 6816, "banaayili,</w>": 6817, "yεltɔɣ’</w>": 6818, "li:</w>": 6819, "es,</w>": 6820, "nyaanŋa,</w>": 6821, "dariʒiɛɣu</w>": 6822, "nyar": 6823, "bɔhisi,</w>": 6824, "neembihi</w>": 6825, "faako</w>": 6826, "mani.</w>": 6827, "kɔra</w>": 6828, "ayɔ": 6829, "muna</w>": 6830, "feera</w>": 6831, "gbaŋ-": 6832, "shee": 6833, "l,</w>": 6834, "kur’</w>": 6835, "vali.</w>": 6836, "mugabe</w>": 6837, "gundôêu</w>": 6838, "docta</w>": 6839, "atwima</w>": 6840, "12th</w>": 6841, "pukpari": 6842, "pam;</w>": 6843, "wester": 6844, "bɔm</w>": 6845, "ohene</w>": 6846, "minister.</w>": 6847, "m-</w>": 6848, "yale</w>": 6849, "ampofo</w>": 6850, "anduniayili</w>": 6851, "sabira,</w>": 6852, "yiŋsi</w>": 6853, "9)</w>": 6854, "fun</w>": 6855, "press</w>": 6856, "stadium</w>": 6857, "hampshire</w>": 6858, "game</w>": 6859, "fine</w>": 6860, "26": 6861, "tv3</w>": 6862, "russia</w>": 6863, "nyɛŋ</w>": 6864, "baåsim</w>": 6865, "14,</w>": 6866, "nyɛvili.</w>": 6867, "bɛ-": 6868, "dagbôå</w>": 6869, "shâli,</w>": 6870, "ŋanima</w>": 6871, "adamu</w>": 6872, "machine</w>": 6873, "far": 6874, "kôå</w>": 6875, "bɔl'ŋmɛra.</w>": 6876, "burinya</w>": 6877, "53</w>": 6878, "borila</w>": 6879, "anas</w>": 6880, "daadamanima</w>": 6881, "abena</w>": 6882, "labila</w>": 6883, "nyabu.</w>": 6884, "yabili</w>": 6885, "dagbaŋ": 6886, "ɣʋ</w>": 6887, "amaŋa.</w>": 6888, "n-kɔŋ</w>": 6889, "daashili</w>": 6890, "halli</w>": 6891, "taɣi.</w>": 6892, "yaligi</w>": 6893, "n-zaå</w>": 6894, "daambolo</w>": 6895, "bimbɔra</w>": 6896, "naŋgbambili.</w>": 6897, "m-pe</w>": 6898, "choochi</w>": 6899, "nyaɣa</w>": 6900, "gballi.</w>": 6901, "pal'</w>": 6902, "dinaari</w>": 6903, "&": 6904, "maagi</w>": 6905, "warila</w>": 6906, "varisa</w>": 6907, "dakpema</w>": 6908, "zani,</w>": 6909, "los</w>": 6910, "jiŋ</w>": 6911, "bɛɣu</w>": 6912, "arabic</w>": 6913, "digu</w>": 6914, "yiniyini</w>": 6915, "nyaɣisa.</w>": 6916, "n-taɣiri</w>": 6917, "gul": 6918, "américa</w>": 6919, "chicha</w>": 6920, "wara.</w>": 6921, "nɛ</w>": 6922, "zaåla</w>": 6923, "120</w>": 6924, "moo</w>": 6925, "8,</w>": 6926, "anasha": 6927, "sapashini</w>": 6928, "luya</w>": 6929, "hayford</w>": 6930, "n-ŋmaai</w>": 6931, "6.</w>": 6932, "ŋarim</w>": 6933, "yaali</w>": 6934, "piimi</w>": 6935, "imoro</w>": 6936, "ayɔbu.</w>": 6937, "1966,</w>": 6938, "kɔba.</w>": 6939, "fusheini</w>": 6940, "ŋmahima</w>": 6941, "ŋahiri</w>": 6942, "tapaɣa</w>": 6943, "techiman</w>": 6944, "yuu</w>": 6945, "diɛ</w>": 6946, "dihimi</w>": 6947, "dahinsheli</w>": 6948, "dinsaha</w>": 6949, "salinsaa</w>": 6950, "tinshâåa</w>": 6951, "foto</w>": 6952, "rotimi</w>": 6953, "wyoming</w>": 6954, "furi</w>": 6955, "tampiligim</w>": 6956, "baɣila</w>": 6957, "zobôêunaa</w>": 6958, "tumaduu</w>": 6959, "ْ": 6960, "maam</w>": 6961, "jiri</w>": 6962, "puhirila</w>": 6963, "psychology</w>": 6964, "faai</w>": 6965, "pine</w>": 6966, "dalin": 6967, "escudos</w>": 6968, "n'</w>": 6969, "dakpâma</w>": 6970, "isa": 6971, "6)</w>": 6972, "kpeen</w>": 6973, "naya,</w>": 6974, "wala,</w>": 6975, "amarika</w>": 6976, "naɣikɔra</w>": 6977, "wildlife</w>": 6978, "agyeman</w>": 6979, "firi</w>": 6980, "yɛligiri</w>": 6981, "bapiri</w>": 6982, "rio</w>": 6983, "dibahi</w>": 6984, "zanetor</w>": 6985, "delaware</w>": 6986, "speaker</w>": 6987, "yani.</w>": 6988, "kuɣi</w>": 6989, "kpehi</w>": 6990, "mɔɣiri</w>": 6991, "kɔtomsi</w>": 6992, "moori</w>": 6993, "sheeri</w>": 6994, "sooŋa</w>": 6995, "suma.</w>": 6996, "procurement</w>": 6997, "votes</w>": 6998, "dɔ</w>": 6999, "sida</w>": 7000, "zoosim,</w>": 7001, "komitii,</w>": 7002, "viini</w>": 7003, "oak</w>": 7004, "yoo-naa</w>": 7005, "gam": 7006, "dibo</w>": 7007, "d'or</w>": 7008, "1987,</w>": 7009, "maa": 7010, "dumi</w>": 7011, "daa": 7012, "ashibti</w>": 7013, "70</w>": 7014, "10th</w>": 7015, "doli,</w>": 7016, "luɣilikam</w>": 7017, "pirin</w>": 7018, "pirigiri</w>": 7019, "alana</w>": 7020, "tey</w>": 7021, "shin": 7022, "gyasi</w>": 7023, "dimaŋ'</w>": 7024, "niɛŋ</w>": 7025, "poli": 7026, "piɛlli,</w>": 7027, "ninsalnim</w>": 7028, "dooi</w>": 7029, "ŋmahim</w>": 7030, "biɛla.</w>": 7031, "region)</w>": 7032, "kɛ": 7033, "kpibiga</w>": 7034, "shibam</w>": 7035, "yibala</w>": 7036, "tingbani,</w>": 7037, "|": 7038, "turkish</w>": 7039, "yubu.</w>": 7040, "kpaŋsira</w>": 7041, "ny</w>": 7042, "n-zaŋdi</w>": 7043, "sal</w>": 7044, "yɛtɔɣili</w>": 7045, "heinrich</w>": 7046, "wɔɣira</w>": 7047, "spain,catalonia</w>": 7048, "tɔbu,</w>": 7049, "toondaan</w>": 7050, "bindoo</w>": 7051, "saɣinda</w>": 7052, "asokwa</w>": 7053, "bonsu</w>": 7054, "ankara,</w>": 7055, "gulinyaaŋa</w>": 7056, "liha</w>": 7057, "diɛma.</w>": 7058, "25,</w>": 7059, "tora</w>": 7060, "panish</w>": 7061, "1950</w>": 7062, "ayobu,</w>": 7063, "yoobu</w>": 7064, "boroboro</w>": 7065, "doobia</w>": 7066, "waayo</w>": 7067, "educational</w>": 7068, "giŋ": 7069, "109": 7070, "jaaji</w>": 7071, "baŋdiba,</w>": 7072, "taha</w>": 7073, "himiya</w>": 7074, "niŋmiya</w>": 7075, "woman</w>": 7076, "1990": 7077, "nah</w>": 7078, "yuni</w>": 7079, "tayiɣisi</w>": 7080, "pie</w>": 7081, "daabiligu.</w>": 7082, "summer</w>": 7083, "timmi</w>": 7084, "ammɔ": 7085, "ʒi’</w>": 7086, "programme</w>": 7087, "filiŋ</w>": 7088, "bara,</w>": 7089, "ning</w>": 7090, "yiti</w>": 7091, "boo": 7092, "kɔhibu</w>": 7093, "dabsi</w>": 7094, "dagbô": 7095, "ge.</w>": 7096, "nyaanzum</w>": 7097, "lan'</w>": 7098, "mathematical</w>": 7099, "tula.</w>": 7100, "kulla</w>": 7101, "pul’</w>": 7102, "saul.</w>": 7103, "chicago</w>": 7104, "kpiɛŋ</w>": 7105, "students</w>": 7106, "muntaka</w>": 7107, "ŋsi</w>": 7108, "alizumba</w>": 7109, "nimba</w>": 7110, "loba</w>": 7111, "(naawuni)</w>": 7112, "trans": 7113, "la’</w>": 7114, "city,</w>": 7115, "tinima</w>": 7116, "leone</w>": 7117, "wɔrizɔhi</w>": 7118, "n-du</w>": 7119, "yεliya</w>": 7120, "neebu</w>": 7121, "f)</w>": 7122, "øila</w>": 7123, "cap": 7124, "gbubbu</w>": 7125, "tɔbiri</w>": 7126, "ningbungbaŋ</w>": 7127, "bingula</w>": 7128, "agyapong</w>": 7129, "bank.</w>": 7130, "actress</w>": 7131, "miss</w>": 7132, "5)</w>": 7133, "48</w>": 7134, "wuntitali</w>": 7135, "billboard</w>": 7136, "gun</w>": 7137, "wed</w>": 7138, "virunga</w>": 7139, "main</w>": 7140, "ɣiri": 7141, "ireland</w>": 7142, "samira</w>": 7143, "baanjira</w>": 7144, "casemiro</w>": 7145, "d.</w>": 7146, "wulli</w>": 7147, "#": 7148, "balibu.</w>": 7149, "all-": 7150, "security</w>": 7151, "sites</w>": 7152, "writing</w>": 7153, "sambana</w>": 7154, "pil’</w>": 7155, "1981,</w>": 7156, "ania</w>": 7157, "van": 7158, "mas": 7159, "nambɔɣu.</w>": 7160, "lower</w>": 7161, "kama</w>": 7162, "sin</w>": 7163, "mia.</w>": 7164, "bole</w>": 7165, "bol’</w>": 7166, "muɣi</w>": 7167, "samia</w>": 7168, "mabi’</w>": 7169, "let</w>": 7170, "pee": 7171, "'o</w>": 7172, "celona</w>": 7173, "ninni.</w>": 7174, "pɔla</w>": 7175, "binbɔra</w>": 7176, "wal": 7177, "yibi</w>": 7178, "tindu": 7179, "pari": 7180, "ŋmɛrila</w>": 7181, "ŋman’</w>": 7182, "ctober</w>": 7183, "tropical</w>": 7184, "kɔbiga,</w>": 7185, "ago</w>": 7186, "gan</w>": 7187, "tah</w>": 7188, "ayi,ni</w>": 7189, "collagɛ</w>": 7190, "parks</w>": 7191, "’’</w>": 7192, "asibaasi</w>": 7193, "1964,</w>": 7194, "pum</w>": 7195, "miɛ": 7196, "gbalun</w>": 7197, "1966)</w>": 7198, "1979)</w>": 7199, "teebu</w>": 7200, "150</w>": 7201, "radia</w>": 7202, "د": 7203, "gɔriba</w>": 7204, "gbi": 7205, "gbihi</w>": 7206, "accountant</w>": 7207, "daantaliga</w>": 7208, "ɣira.</w>": 7209, "\"gce</w>": 7210, "nes</w>": 7211, "saan’</w>": 7212, "vuu": 7213, "spor": 7214, "biɛrisuŋ</w>": 7215, "kwadwo</w>": 7216, "wa'</w>": 7217, "daabiligu,</w>": 7218, "ni\"</w>": 7219, "achebe</w>": 7220, "campaign</w>": 7221, "son": 7222, "abraham</w>": 7223, "zabili.</w>": 7224, "wɔligi</w>": 7225, "le,</w>": 7226, "ranking</w>": 7227, "amah</w>": 7228, "boys</w>": 7229, "science.</w>": 7230, "jɔɣu</w>": 7231, "chevaliers</w>": 7232, "dun</w>": 7233, "kpɛrikpɛrita,</w>": 7234, "a’</w>": 7235, "tεha</w>": 7236, "kumdila</w>": 7237, "1974)</w>": 7238, "yaa-": 7239, "biâêu</w>": 7240, "tun": 7241, "yâlimuêisira</w>": 7242, "yâlimuêisir’</w>": 7243, "luêushâåa</w>": 7244, "toon": 7245, "cross</w>": 7246, "2006.</w>": 7247, "gahiri</w>": 7248, "paɣidɔɣisotɔɣinda</w>": 7249, "ice</w>": 7250, "ef</w>": 7251, "north,</w>": 7252, "52</w>": 7253, "yo.</w>": 7254, "gban'</w>": 7255, "m-baligi</w>": 7256, "2%</w>": 7257, "bindiri": 7258, "mariama</w>": 7259, "zambu</w>": 7260, "gahimbu</w>": 7261, "va’</w>": 7262, "muɣisi": 7263, "laɣam</w>": 7264, "mɔ'</w>": 7265, "buta,</w>": 7266, "daam</w>": 7267, "yam</w>": 7268, "mi'</w>": 7269, "n-kpaŋsi</w>": 7270, "n-kariti</w>": 7271, "nal</w>": 7272, "pɔhim,</w>": 7273, "dabiɛm.</w>": 7274, "2002.</w>": 7275, "shinkaafa,</w>": 7276, "54</w>": 7277, "unaa</w>": 7278, "puɣisi</w>": 7279, "poverty</w>": 7280, "eac</w>": 7281, "bɔɣa</w>": 7282, "toon’": 7283, "n-tari</w>": 7284, "conservation</w>": 7285, "\"diploma</w>": 7286, "home</w>": 7287, "nyom.</w>": 7288, "dachɛ": 7289, "yɛrimi</w>": 7290, "nyɛrila</w>": 7291, "nyɛhi</w>": 7292, "pilindi</w>": 7293, "(cpp)</w>": 7294, "ɛl</w>": 7295, "tuuta</w>": 7296, "tura</w>": 7297, "ī": 7298, "kpan’</w>": 7299, "za,</w>": 7300, "nda</w>": 7301, "kura.</w>": 7302, "ʒee,</w>": 7303, "tan</w>": 7304, "biɛr’</w>": 7305, "yela</w>": 7306, "governance</w>": 7307, "associate</w>": 7308, "ral</w>": 7309, "abudu</w>": 7310, "afo</w>": 7311, "ŋli</w>": 7312, "tana.</w>": 7313, "korea</w>": 7314, "kpulli</w>": 7315, "laɣ'pala</w>": 7316, "3.</w>": 7317, "1990,</w>": 7318, "bobigu</w>": 7319, "beli</w>": 7320, "biɛɣ'pishii</w>": 7321, "ayopoin</w>": 7322, "47</w>": 7323, "when</w>": 7324, "nayiɣa</w>": 7325, "mfantsiman</w>": 7326, "lola</w>": 7327, "septem": 7328, "kɔhiriba</w>": 7329, "kasiɣiri</w>": 7330, "tiŋ'shɛŋa</w>": 7331, "unit</w>": 7332, "msc</w>": 7333, "chibisi</w>": 7334, "augustine</w>": 7335, "yinsi,</w>": 7336, "noo": 7337, "nɛm</w>": 7338, "kansi</w>": 7339, "micha": 7340, "kambonnakpԑma</w>": 7341, "n-yo</w>": 7342, "m-beni</w>": 7343, "n-labisi</w>": 7344, "ela</w>": 7345, "road</w>": 7346, "records</w>": 7347, "bo.</w>": 7348, "laɣim": 7349, "taylor</w>": 7350, "bachinam": 7351, "four</w>": 7352, "gani</w>": 7353, "highest</w>": 7354, "ny": 7355, "bos</w>": 7356, "awara.</w>": 7357, "mɛli</w>": 7358, ")\",</w>": 7359, "cho</w>": 7360, "laha": 7361, "ö": 7362, "tɔ,</w>": 7363, "jima</w>": 7364, "bindirigu,</w>": 7365, "ry": 7366, "tusaata</w>": 7367, "5%</w>": 7368, "langu": 7369, "m-bɔŋɔ:</w>": 7370, "tiŋ'kurili</w>": 7371, "abdu": 7372, "yinika</w>": 7373, "nakpachia</w>": 7374, "neymar</w>": 7375, "n-du": 7376, "puya</w>": 7377, "baŋ.</w>": 7378, "en-": 7379, "nari</w>": 7380, "ti'": 7381, "korona</w>": 7382, "bimbila,</w>": 7383, "pala,</w>": 7384, "tororo</w>": 7385, "dimli</w>": 7386, "biligu</w>": 7387, "tam.</w>": 7388, "kalu</w>": 7389, "ef": 7390, "name</w>": 7391, "mena.</w>": 7392, "barina.</w>": 7393, "suhiyini</w>": 7394, "vol": 7395, "diɛm</w>": 7396, "medicine</w>": 7397, "erics</w>": 7398, "qualification</w>": 7399, "microsoft</w>": 7400, "km": 7401, "ŋmariba</w>": 7402, "yɛltͻŋa</w>": 7403, "kenya.</w>": 7404, "duunsi</w>": 7405, "banu</w>": 7406, "pɔri.</w>": 7407, "(hons)</w>": 7408, "eni": 7409, "vori</w>": 7410, "nolɔ": 7411, "noli": 7412, "gil’</w>": 7413, "etc.</w>": 7414, "bahiga</w>": 7415, "wadi</w>": 7416, "puɣi</w>": 7417, "r'</w>": 7418, "sporting</w>": 7419, "arts.</w>": 7420, "lura</w>": 7421, "selasi</w>": 7422, "asunafo</w>": 7423, "kuno</w>": 7424, "ner</w>": 7425, "principal</w>": 7426, "that</w>": 7427, "dor’</w>": 7428, "pɔi,</w>": 7429, "wales</w>": 7430, "kanimina</w>": 7431, "katiŋa.</w>": 7432, "kumasi,</w>": 7433, "suhuni</w>": 7434, "limama</w>": 7435, "things</w>": 7436, "village</w>": 7437, "balli.</w>": 7438, "coor": 7439, "naabu.</w>": 7440, "sanaa,</w>": 7441, "tibiginsim</w>": 7442, "esther</w>": 7443, "rate.</w>": 7444, "gbambihi</w>": 7445, "tim’</w>": 7446, "fatima,</w>": 7447, "adisadel</w>": 7448, "danish</w>": 7449, "ps": 7450, "dimani</w>": 7451, "show</w>": 7452, "dery</w>": 7453, "zaligu,</w>": 7454, "archaeological</w>": 7455, "nol’</w>": 7456, "zaŋɔ</w>": 7457, "order</w>": 7458, "log": 7459, "1985,</w>": 7460, "nyab'</w>": 7461, "pennsyl": 7462, "yapalisi</w>": 7463, "dalanyili</w>": 7464, "dikpuna</w>": 7465, "simantiks</w>": 7466, "dansarika</w>": 7467, "shɛlikam.</w>": 7468, "machɛ": 7469, "nuuni,</w>": 7470, "kpɛrila</w>": 7471, "zaɣili</w>": 7472, "house.</w>": 7473, "team.</w>": 7474, "pɛ</w>": 7475, "189": 7476, "ʒimi</w>": 7477, "daim</w>": 7478, "surim</w>": 7479, "museum</w>": 7480, "\"primaries\"</w>": 7481, "tower</w>": 7482, "deei.</w>": 7483, "kuŋ": 7484, "sahara</w>": 7485, "alahari</w>": 7486, "takahi</w>": 7487, "mahama.</w>": 7488, "dapaɣa</w>": 7489, "acting</w>": 7490, "duɣibu</w>": 7491, "legislative</w>": 7492, "bakoyi</w>": 7493, "dede.</w>": 7494, "biԑɣu</w>": 7495, "gooni.</w>": 7496, "mantey</w>": 7497, "gundaa</w>": 7498, "gomado</w>": 7499, "yaanabihi</w>": 7500, "ŋariti</w>": 7501, "apri": 7502, "maa)</w>": 7503, "zamaatu</w>": 7504, "ŋmaali</w>": 7505, "maaligu</w>": 7506, "paati(npp)</w>": 7507, "brazilian</w>": 7508, "n-tiligi</w>": 7509, "pukparilim,</w>": 7510, "naɣilaa</w>": 7511, "varisigu</w>": 7512, "dapuhi</w>": 7513, "kuffour</w>": 7514, "et": 7515, "dar</w>": 7516, "ʒɛmi</w>": 7517, "ci</w>": 7518, "mont": 7519, "41</w>": 7520, "europa</w>": 7521, "europe,</w>": 7522, "bc,</w>": 7523, "limited,</w>": 7524, "gbɛra</w>": 7525, "elechi</w>": 7526, "jɛ</w>": 7527, "palo,</w>": 7528, "jaande</w>": 7529, "kabira</w>": 7530, "piɛbiri</w>": 7531, "nimaa</w>": 7532, "kan-dapaah</w>": 7533, "wɔndi</w>": 7534, "nyolɔ": 7535, "maliga</w>": 7536, "kaha</w>": 7537, "ŋariŋga</w>": 7538, "dɔɣiri": 7539, "bula</w>": 7540, "ze</w>": 7541, "ayishetu</w>": 7542, "monetary</w>": 7543, "pampam.</w>": 7544, "pen": 7545, "binkɔbigu</w>": 7546, "ug": 7547, "voli.</w>": 7548, "namo</w>": 7549, "laɣ'shɛli</w>": 7550, "up</w>": 7551, "kpâ": 7552, "ta'": 7553, "cts</w>": 7554, "through</w>": 7555, "bel": 7556, "rigu.</w>": 7557, "nyabiga</w>": 7558, "baɣiyuli</w>": 7559, "ph": 7560, "femi</w>": 7561, "tuhiya</w>": 7562, "shɛl’</w>": 7563, "ashaara</w>": 7564, "gbaarila</w>": 7565, "kpuɣirila</w>": 7566, "sheebu</w>": 7567, "aid</w>": 7568, "yarida</w>": 7569, "yidana.</w>": 7570, "laɣidili</w>": 7571, "adiini,</w>": 7572, "(ghana</w>": 7573, "500,</w>": 7574, "newfoundland</w>": 7575, "teesa</w>": 7576, "amen": 7577, "ŋᴐ": 7578, "pakpaŋ</w>": 7579, "kweku</w>": 7580, "tab": 7581, "46</w>": 7582, "kumbun</w>": 7583, "nyabo</w>": 7584, "ce\"</w>": 7585, "tindaandi</w>": 7586, "yiinda,</w>": 7587, "yɛma</w>": 7588, "dɔɣibu</w>": 7589, "zahim": 7590, "sub-saharan</w>": 7591, "zupiligu</w>": 7592, "?": 7593, "(be</w>": 7594, "jɛndiri</w>": 7595, "fil": 7596, "chris</w>": 7597, "christ</w>": 7598, "christine</w>": 7599, "shɛhi.</w>": 7600, "sumatra</w>": 7601, "simo.</w>": 7602, "ahi</w>": 7603, "kpaluhi</w>": 7604, "uri</w>": 7605, "sa,</w>": 7606, "sakɔri</w>": 7607, "molibu</w>": 7608, "wolima</w>": 7609, "finals</w>": 7610, "ashɛm</w>": 7611, "staff</w>": 7612, "dani</w>": 7613, "gbibila</w>": 7614, "tibibu</w>": 7615, "zibilim</w>": 7616, "zanibu</w>": 7617, "bibila</w>": 7618, "wuhiba</w>": 7619, "wuhibu.</w>": 7620, "libigi</w>": 7621, "kpibisi</w>": 7622, "biribu</w>": 7623, "arm</w>": 7624, "du’": 7625, "1947,</w>": 7626, "tumla</w>": 7627, "pp)</w>": 7628, "rangers</w>": 7629, "way": 7630, "malak": 7631, "ament</w>": 7632, "gala,</w>": 7633, "ata:</w>": 7634, "nangban'</w>": 7635, "tin'</w>": 7636, "duun'</w>": 7637, "tɔhinima</w>": 7638, "1972,</w>": 7639, "kpula</w>": 7640, "wendy</w>": 7641, "mur": 7642, "bank,</w>": 7643, "binkɔbiri,</w>": 7644, "bunkɔbiri</w>": 7645, "binkɔbi</w>": 7646, "daankaliŋ</w>": 7647, "jaŋsi</w>": 7648, "ayyu": 7649, "que</w>": 7650, "kano</w>": 7651, "tɔɣino</w>": 7652, "ŋa": 7653, "tonto</w>": 7654, "n-kpuɣiri</w>": 7655, "zooi.</w>": 7656, "committee": 7657, "gobu</w>": 7658, "binkob</w>": 7659, "gn</w>": 7660, "nd</w>": 7661, "napaɣaba</w>": 7662, "nyinyaɣu.</w>": 7663, "schools</w>": 7664, "vania</w>": 7665, "duɣu": 7666, "mission</w>": 7667, "region": 7668, "galiga</w>": 7669, "coordinator</w>": 7670, "niŋm’</w>": 7671, "muslimi</w>": 7672, "osman</w>": 7673, "kin": 7674, "azaaba</w>": 7675, "daazaaba</w>": 7676, "gender,</w>": 7677, "luhiri</w>": 7678, "yiɣisimi</w>": 7679, "yaɣ’shɛŋa</w>": 7680, "zaligu.</w>": 7681, "jeremi": 7682, "49</w>": 7683, "shεhira</w>": 7684, "pô": 7685, "suhukpeeni</w>": 7686, "fukumsi.</w>": 7687, "abdullahi</w>": 7688, "·</w>": 7689, "ayɔbu,</w>": 7690, "residence</w>": 7691, "korle-bu</w>": 7692, "nakɔhinima</w>": 7693, "nakɔhi</w>": 7694, "tɔɣisira</w>": 7695, "ʒilɛ": 7696, "construction</w>": 7697, "yulila</w>": 7698, "wulimili</w>": 7699, "ni:</w>": 7700, "biɛlabiɛla</w>": 7701, "bindira.</w>": 7702, "biɛlabiɛla.</w>": 7703, "ili</w>": 7704, "dozim</w>": 7705, "zondi</w>": 7706, "(5)</w>": 7707, "puhiya</w>": 7708, "suurili.</w>": 7709, "zi</w>": 7710, "fabili</w>": 7711, "video</w>": 7712, "dioxide</w>": 7713, "damdiri</w>": 7714, "(who)</w>": 7715, "tourism,</w>": 7716, "’shɛŋa</w>": 7717, "rati": 7718, "asiba": 7719, "land,</w>": 7720, "ɣinda</w>": 7721, "iri</w>": 7722, "faa</w>": 7723, "ningbina</w>": 7724, "ngo</w>": 7725, "gal": 7726, "business.</w>": 7727, "swiss</w>": 7728, "assur</w>": 7729, "bɔbu,</w>": 7730, "prampram</w>": 7731, "ntim</w>": 7732, "gurugu</w>": 7733, "sa'</w>": 7734, "bunsi</w>": 7735, "lirigu</w>": 7736, "daliri.</w>": 7737, "nir'</w>": 7738, "jirapa</w>": 7739, "emirates</w>": 7740, "nimmira</w>": 7741, "watamilo</w>": 7742, "constituency": 7743, "m-puhi</w>": 7744, "(i": 7745, "kpeen’</w>": 7746, "os</w>": 7747, "anabitali</w>": 7748, "visitor</w>": 7749, "university.</w>": 7750, "ashibitinima</w>": 7751, "dɔɣita</w>": 7752, "27,</w>": 7753, "dolodolonima</w>": 7754, "napɔŋ": 7755, "persi": 7756, "well</w>": 7757, "!”.</w>": 7758, "ese</w>": 7759, "):</w>": 7760, "complex</w>": 7761, "sheegi</w>": 7762, "telegram</w>": 7763, "6th</w>": 7764, "duhibu</w>": 7765, "network</w>": 7766, "cs</w>": 7767, "bachinamdi</w>": 7768, "kamali</w>": 7769, "biɛhi": 7770, "saa.</w>": 7771, "tem": 7772, "n-wumdi</w>": 7773, "kaman’</w>": 7774, "sapashin’</w>": 7775, "liberi": 7776, "\"national</w>": 7777, "wana.</w>": 7778, "studies.</w>": 7779, "cent</w>": 7780, "lɛri</w>": 7781, "kaŋmɛri</w>": 7782, "xavier</w>": 7783, "lon": 7784, "han</w>": 7785, "kuriga</w>": 7786, "sashiriga</w>": 7787, "1990s</w>": 7788, "coun": 7789, "non-": 7790, "zobôê": 7791, "nimdi,</w>": 7792, "puŋ</w>": 7793, "liŋ": 7794, "harvard</w>": 7795, "zara:</w>": 7796, "pumahigu</w>": 7797, "karunzoŋ</w>": 7798, "cambridge</w>": 7799, "duɣim</w>": 7800, "viɛnyala</w>": 7801, "dagbandabba</w>": 7802, "consultant</w>": 7803, "balantee</w>": 7804, "kantɔŋ</w>": 7805, "regi": 7806, "behigu</w>": 7807, "am)</w>": 7808, "sôådi</w>": 7809, "una</w>": 7810, "biɛɣu,</w>": 7811, "atuegwu</w>": 7812, "net</w>": 7813, "dani": 7814, "solɔri</w>": 7815, "sɔŋbu</w>": 7816, "kubihi</w>": 7817, "kubu.</w>": 7818, "baai</w>": 7819, "bala,</w>": 7820, "christi": 7821, "43</w>": 7822, "kumtili</w>": 7823, "tabi": 7824, "bece</w>": 7825, "bɔɣ’</w>": 7826, "w,</w>": 7827, "adu,</w>": 7828, "onal</w>": 7829, "saa,</w>": 7830, "nya,</w>": 7831, "åô.</w>": 7832, "yiɣirigu</w>": 7833, "yiɣi.</w>": 7834, "komputa</w>": 7835, "n-niŋ.</w>": 7836, "beemoni</w>": 7837, "ninsala,</w>": 7838, "wɔɣila</w>": 7839, "yɛlinli</w>": 7840, "م": 7841, "n-bɔŋɔ.</w>": 7842, "zimbabwe</w>": 7843, "n-zaɣisi</w>": 7844, "kpunkpama</w>": 7845, "rɔ": 7846, "mbappé</w>": 7847, "niåsim</w>": 7848, "abi</w>": 7849, "pishii</w>": 7850, "friedrich</w>": 7851, "roberto</w>": 7852, "chimu</w>": 7853, "baådiba</w>": 7854, "2003.</w>": 7855, "nimbu</w>": 7856, "ʒiina</w>": 7857, "pala.</w>": 7858, "nyuu": 7859, "kuêu</w>": 7860, "bɔɣi</w>": 7861, "bɔɣi.</w>": 7862, "boro</w>": 7863, "shitôbu</w>": 7864, "touris": 7865, "february,</w>": 7866, "stone</w>": 7867, "akosua</w>": 7868, "ᴐ": 7869, "suhudoo,</w>": 7870, "(uds)</w>": 7871, "kpaŋa.</w>": 7872, "desert</w>": 7873, "zaêisi</w>": 7874, "gomashie</w>": 7875, "’shɛli</w>": 7876, "roma</w>": 7877, "zuɣ'": 7878, "musu": 7879, "attah</w>": 7880, "tampe-kukoo</w>": 7881, "chinua</w>": 7882, "_</w>": 7883, "sey</w>": 7884, "tiŋtitali</w>": 7885, "corporate</w>": 7886, "ŋmahinli</w>": 7887, "vuhira</w>": 7888, "gimi</w>": 7889, "wɔli</w>": 7890, "waanwaan</w>": 7891, "love</w>": 7892, "(listen)</w>": 7893, "parim</w>": 7894, "karimbaannim’</w>": 7895, "mɔ'": 7896, "500": 7897, "190": 7898, "1970,</w>": 7899, "chεmi</w>": 7900, "ayo": 7901, "1986,</w>": 7902, "pirimi</w>": 7903, "des": 7904, "ma'": 7905, "pierre</w>": 7906, "paala</w>": 7907, "ʒee.</w>": 7908, "\"bachelor's</w>": 7909, "dibi</w>": 7910, "boogi</w>": 7911, "yoŋ</w>": 7912, "gukpɛɣu</w>": 7913, "-/": 7914, "bishop</w>": 7915, "ek": 7916, "amugi</w>": 7917, "\"n</w>": 7918, "chuɣu,</w>": 7919, "suhuyubu</w>": 7920, "okoh</w>": 7921, "buåa</w>": 7922, "ŋmε": 7923, "chu</w>": 7924, "matthew</w>": 7925, "baaŋa</w>": 7926, "dunia,</w>": 7927, "tuɣiri</w>": 7928, "ade</w>": 7929, "bre": 7930, "ke</w>": 7931, "fe</w>": 7932, "ŋmari": 7933, "kora</w>": 7934, "lihi,</w>": 7935, "long</w>": 7936, "baɣi": 7937, "wɔliginsim</w>": 7938, "ȝ": 7939, "subsidi": 7940, "4217</w>": 7941, "al,</w>": 7942, "n-chihi</w>": 7943, "ʒia.</w>": 7944, "ami": 7945, "yurigu</w>": 7946, "paani</w>": 7947, "yaha": 7948, "standing</w>": 7949, "cl</w>": 7950, "vi,</w>": 7951, "wenchi</w>": 7952, "tâ": 7953, "rahman</w>": 7954, "yԑli</w>": 7955, "kɔbisi": 7956, "sur": 7957, "bima</w>": 7958, "kurumbuna</w>": 7959, "karimbia</w>": 7960, "zimbuli</w>": 7961, "noombihi</w>": 7962, "nachimbil’</w>": 7963, "49": 7964, "performance</w>": 7965, "ا": 7966, "saba</w>": 7967, "yen": 7968, "higu.</w>": 7969, "ahmad</w>": 7970, "school": 7971, "anglia</w>": 7972, "tibuŋ</w>": 7973, "buŋgu.</w>": 7974, "republic\"</w>": 7975, "asu": 7976, "zuliya.</w>": 7977, "zaniya</w>": 7978, "siyaasatali</w>": 7979, "nyiya</w>": 7980, "wiyaala</w>": 7981, "kɔbisiyi</w>": 7982, "wat": 7983, "partnership</w>": 7984, "nar": 7985, "alichɛ": 7986, "rashid</w>": 7987, "visual</w>": 7988, "gbaaya</w>": 7989, "roads</w>": 7990, "babu</w>": 7991, "bukaatanima</w>": 7992, "gbura</w>": 7993, "nel</w>": 7994, "asafihili</w>": 7995, "n-galisi</w>": 7996, "saŋ</w>": 7997, "afigya</w>": 7998, "felix</w>": 7999, "bom</w>": 8000, "châ": 8001, "uni.</w>": 8002, "way,</w>": 8003, "lli,</w>": 8004, "pinyini</w>": 8005, "vincent</w>": 8006, "squad</w>": 8007, "mitanim</w>": 8008, "akpaaku</w>": 8009, "55</w>": 8010, "brunswick</w>": 8011, "gbariginsim</w>": 8012, "abi": 8013, "panama</w>": 8014, "uruguay.</w>": 8015, "alex": 8016, "biligi</w>": 8017, "koma</w>": 8018, "mali.</w>": 8019, "ninsalnima</w>": 8020, "sol</w>": 8021, "\"ni</w>": 8022, "maa;</w>": 8023, "nyɛli,</w>": 8024, "orders</w>": 8025, "bintɔ": 8026, "balli,</w>": 8027, "ft</w>": 8028, "pina,</w>": 8029, "saharan</w>": 8030, "ashɛ": 8031, "tion": 8032, "angela</w>": 8033, "duno</w>": 8034, "saɣ'": 8035, "tihi,</w>": 8036, "zuɣuni</w>": 8037, "afara</w>": 8038, "bet</w>": 8039, "an-": 8040, "chad</w>": 8041, "lat</w>": 8042, "jean</w>": 8043, "agency</w>": 8044, "rid": 8045, "keenan</w>": 8046, ")o</w>": 8047, "tarisi.</w>": 8048, "kpima</w>": 8049, "pastor</w>": 8050, "ashur</w>": 8051, "tɔhi": 8052, "kɔbili.</w>": 8053, "puuni": 8054, "wild</w>": 8055, "yaɣ": 8056, "wes": 8057, "sabili.</w>": 8058, "tima.</w>": 8059, "50,</w>": 8060, "kpatiŋa</w>": 8061, "chib’</w>": 8062, "bini,</w>": 8063, "initiative</w>": 8064, "alan</w>": 8065, "vie": 8066, "le-": 8067, "barinima.</w>": 8068, "ʒinimi</w>": 8069, "2020": 8070, "ŋubi.</w>": 8071, "stella</w>": 8072, "taɣira</w>": 8073, "aliu</w>": 8074, "lakes</w>": 8075, "karimi</w>": 8076, "tutuɣu</w>": 8077, "daadambiɛligu</w>": 8078, "daily</w>": 8079, "tiligimsim</w>": 8080, "kparilim</w>": 8081, "diribarilim</w>": 8082, "siɣilana</w>": 8083, "ntiletanima</w>": 8084, "mɔɣilɔ": 8085, "firilatam": 8086, "nyuriba</w>": 8087, "gbal’</w>": 8088, "daligu</w>": 8089, "(arabic:</w>": 8090, "gurila</w>": 8091, "3–0</w>": 8092, "sima.</w>": 8093, "management.</w>": 8094, "palmyra's</w>": 8095, "chambers</w>": 8096, "biliga</w>": 8097, "kpaŋmaŋa.</w>": 8098, "gbiligi</w>": 8099, "palace,</w>": 8100, "vari.</w>": 8101, "wari.</w>": 8102, "nyaɣisa,</w>": 8103, "katini.</w>": 8104, "jaande,</w>": 8105, "academy,</w>": 8106, "n-mi</w>": 8107, "mof</w>": 8108, "!": 8109, "dizuŋu</w>": 8110, "jiŋli.</w>": 8111, "(naa</w>": 8112, "nyori</w>": 8113, "kabigi</w>": 8114, "teemi</w>": 8115, "kperigu</w>": 8116, "lini</w>": 8117, "jinapor</w>": 8118, "dapaɣili</w>": 8119, "portugu": 8120, "gomnan-ti</w>": 8121, "rene</w>": 8122, "karaga-naa</w>": 8123, "kooni</w>": 8124, "taɣila</w>": 8125, "zaɣisi.</w>": 8126, "nyili</w>": 8127, "juni": 8128, "dab’</w>": 8129, "tipawum": 8130, "(a</w>": 8131, "zô": 8132, "republi": 8133, "laɣim.</w>": 8134, "dɔɣim.</w>": 8135, "konyurim</w>": 8136, "(19": 8137, "14th</w>": 8138, "gbum</w>": 8139, "all-time</w>": 8140, "choggu</w>": 8141, "nyaŋ": 8142, "spain,asturias</w>": 8143, "budget</w>": 8144, "mahama,</w>": 8145, "gahim,</w>": 8146, "zahira</w>": 8147, "bunahi.</w>": 8148, "sssce</w>": 8149, "puuni,ka</w>": 8150, "ni,o</w>": 8151, "asamoah</w>": 8152, "1935</w>": 8153, "sda</w>": 8154, "600</w>": 8155, "biiŋa</w>": 8156, "lesotho</w>": 8157, "tib": 8158, "yaanim’</w>": 8159, "commonwealth</w>": 8160, "yisi</w>": 8161, "gbaɣino</w>": 8162, "gogaliga</w>": 8163, "daanfaani,</w>": 8164, "maala</w>": 8165, "maani,</w>": 8166, "de-": 8167, "experimental</w>": 8168, "wɔɣinli</w>": 8169, "protection</w>": 8170, "1939</w>": 8171, "eastender": 8172, "g)</w>": 8173, "laɣisiri</w>": 8174, "thousand</w>": 8175, "sandaani.</w>": 8176, "bayaan</w>": 8177, "two</w>": 8178, "salo,</w>": 8179, "1943</w>": 8180, "nonini</w>": 8181, "raba</w>": 8182, "bomi</w>": 8183, "wuhi.</w>": 8184, "vii": 8185, "nambɔ": 8186, "es\"</w>": 8187, "nangbanyini.</w>": 8188, "emperor</w>": 8189, "paa.</w>": 8190, "musilinsi</w>": 8191, "kpalinsi</w>": 8192, "jama</w>": 8193, "yindi</w>": 8194, "jabal</w>": 8195, "governor</w>": 8196, "bridge</w>": 8197, "ture</w>": 8198, "andy</w>": 8199, "n-yina</w>": 8200, "pilibu</w>": 8201, "sheei.</w>": 8202, "maanila</w>": 8203, "yabidoo</w>": 8204, "dooshee.</w>": 8205, "miisim</w>": 8206, "pia,</w>": 8207, "continental</w>": 8208, "into</w>": 8209, "yanim</w>": 8210, "mɔ</w>": 8211, "4.</w>": 8212, "gyamfi</w>": 8213, "åô,</w>": 8214, "guui.</w>": 8215, "kpalindila</w>": 8216, "gy</w>": 8217, "kolivaai.</w>": 8218, "gum": 8219, "lli.</w>": 8220, "(naawuni</w>": 8221, "zaawuni.</w>": 8222, "gbengberi</w>": 8223, "dumelo</w>": 8224, "1948,</w>": 8225, "pubbu</w>": 8226, "yinda</w>": 8227, "co-": 8228, "ger</w>": 8229, "bombu</w>": 8230, "ba’</w>": 8231, "muhammed</w>": 8232, "(2013)</w>": 8233, "salt</w>": 8234, "penalty</w>": 8235, "dabaanahi</w>": 8236, "bachiniŋdi</w>": 8237, "liɣi</w>": 8238, "luhi.</w>": 8239, "vihira.</w>": 8240, "kɔriti</w>": 8241, "yooli</w>": 8242, "goligi</w>": 8243, "golibu</w>": 8244, "woli.</w>": 8245, "bi-": 8246, "dirili</w>": 8247, "view</w>": 8248, "sariti</w>": 8249, "governorate</w>": 8250, "ŋmahiri</w>": 8251, "\"a</w>": 8252, "dɔya</w>": 8253, "donkor</w>": 8254, "zibi,</w>": 8255, "paɣiba,</w>": 8256, "taribu</w>": 8257, "kpaɣiribu</w>": 8258, "maalibu,</w>": 8259, "baligibu</w>": 8260, "taɣibu.</w>": 8261, "paɣibi</w>": 8262, "liberation</w>": 8263, "labiboli</w>": 8264, "baribu</w>": 8265, "chibo.</w>": 8266, "dɔɣibu.</w>": 8267, "fɔndi</w>": 8268, "gban’</w>": 8269, "jiŋtora</w>": 8270, "narigu</w>": 8271, "poly": 8272, "buɣu": 8273, "virus</w>": 8274, "puɣisiri</w>": 8275, "os": 8276, "bipuɣin": 8277, "ministers</w>": 8278, "biliɛɣu</w>": 8279, "ata,ni</w>": 8280, "napɔn": 8281, "southwest</w>": 8282, "gɔm</w>": 8283, "gɔma</w>": 8284, "isa</w>": 8285, "lionel</w>": 8286, "adi": 8287, "è</w>": 8288, "sapashin'</w>": 8289, "bartels</w>": 8290, "sani": 8291, "13,</w>": 8292, "wɔɣisi</w>": 8293, "boondili</w>": 8294, "komenda</w>": 8295, "ŋam": 8296, "m-pali</w>": 8297, "kɔnko</w>": 8298, "nkurumah</w>": 8299, "hitabili</w>": 8300, "yaaŋga</w>": 8301, "m-paŋ.</w>": 8302, "21st</w>": 8303, "neei,</w>": 8304, "neemiya</w>": 8305, "duno’</w>": 8306, "zilinli.</w>": 8307, "velu": 8308, "luŋ": 8309, "ep</w>": 8310, "n-sɔŋdi</w>": 8311, "binkobi</w>": 8312, "obafemi</w>": 8313, "boobu</w>": 8314, "rin": 8315, "yaɣali,</w>": 8316, "timsa.</w>": 8317, "dari,</w>": 8318, "kpiɛhi</w>": 8319, "kɔbiga.</w>": 8320, "its</w>": 8321, "pila</w>": 8322, "1965,</w>": 8323, "sabi": 8324, "bulaa</w>": 8325, "park,</w>": 8326, "kuɣili,</w>": 8327, "ati": 8328, "yaɣili)</w>": 8329, "dir": 8330, "bipu": 8331, "talensi</w>": 8332, "kali.</w>": 8333, "tong</w>": 8334, "appoint": 8335, "awoi</w>": 8336, "awara</w>": 8337, "jagbo</w>": 8338, "yɛlizoli</w>": 8339, "yɛlizoli-": 8340, "leemu</w>": 8341, "n-nyaŋ</w>": 8342, "yaɣ’shɛli</w>": 8343, "airport</w>": 8344, "mohammadu</w>": 8345, "laɣimmi</w>": 8346, "n-guhiri</w>": 8347, "guhimi</w>": 8348, "burna</w>": 8349, "gukpenaa</w>": 8350, "baibars</w>": 8351, "wish</w>": 8352, "right</w>": 8353, "kɔhigu</w>": 8354, "kpuɣinimbo</w>": 8355, "tamaligu</w>": 8356, "pooi,</w>": 8357, "tarkwa</w>": 8358, "kpiŋ</w>": 8359, "3–": 8360, "musulim</w>": 8361, "july,</w>": 8362, "nyɛvuli.</w>": 8363, "yul</w>": 8364, "gbulahigu</w>": 8365, "suliga</w>": 8366, "dula</w>": 8367, "padiriba</w>": 8368, "nyɛvu": 8369, "steel</w>": 8370, "chen</w>": 8371, "bahira,</w>": 8372, "pacific</w>": 8373, "bɛi</w>": 8374, "km2</w>": 8375, "ayamba</w>": 8376, "ne,</w>": 8377, "1985)</w>": 8378, "10%</w>": 8379, "sahi</w>": 8380, "15.</w>": 8381, "(tima)</w>": 8382, "guli.</w>": 8383, "vermont</w>": 8384, "kuŋa</w>": 8385, "naɣ'</w>": 8386, "øini,</w>": 8387, "tiå</w>": 8388, "giligi</w>": 8389, "laɣingu,</w>": 8390, "bongo</w>": 8391, "spring</w>": 8392, "mampong</w>": 8393, "tibung</w>": 8394, "kɔringa</w>": 8395, "tional</w>": 8396, "laa.</w>": 8397, "congress,</w>": 8398, "pahira,</w>": 8399, "iron</w>": 8400, "ʒiri.</w>": 8401, "tor</w>": 8402, "yu'shɛli</w>": 8403, "nesota</w>": 8404, "chaamani</w>": 8405, "\"di</w>": 8406, "nai</w>": 8407, "sitima</w>": 8408, "city.</w>": 8409, "dɔɣitenima</w>": 8410, "sitobu</w>": 8411, "kompita</w>": 8412, "cit</w>": 8413, "editor</w>": 8414, "baɣitia</w>": 8415, "cd</w>": 8416, "\"o</w>": 8417, "kayode</w>": 8418, "oda</w>": 8419, "episode</w>": 8420, "lingbu": 8421, "plain</w>": 8422, "begho</w>": 8423, "nd": 8424, "guinean</w>": 8425, "mi;</w>": 8426, "france,</w>": 8427, "laɣimdi</w>": 8428, "paɣaba,</w>": 8429, "siɣa</w>": 8430, "u-": 8431, "logy</w>": 8432, "linjin</w>": 8433, "goonjinim’</w>": 8434, "akyea</w>": 8435, "goon’</w>": 8436, "wun’</w>": 8437, "district),</w>": 8438, "brand</w>": 8439, "dahin": 8440, "shɛla</w>": 8441, "jintɔra,</w>": 8442, "biâm</w>": 8443, "sariga</w>": 8444, "street</w>": 8445, "bɔmi</w>": 8446, "yiiniba</w>": 8447, "ghansah</w>": 8448, "pako’</w>": 8449, "shɛbu</w>": 8450, "accountan": 8451, "in-": 8452, "kpunkpaamba</w>": 8453, "m-me</w>": 8454, "species</w>": 8455, "publishing</w>": 8456, "bipɔla</w>": 8457, "absalom</w>": 8458, "ch,</w>": 8459, "bidibbina</w>": 8460, "advance</w>": 8461, "hindi</w>": 8462, "nanton-naa</w>": 8463, "nantariga</w>": 8464, "rivers</w>": 8465, "ge,</w>": 8466, "38</w>": 8467, "chibiri</w>": 8468, "do'</w>": 8469, "bobugu</w>": 8470, "li)</w>": 8471, "sahashâli</w>": 8472, "isi": 8473, "kubu,</w>": 8474, "yakuba</w>": 8475, "gimpa</w>": 8476, "parisi</w>": 8477, "yaan": 8478, "chɔɣimata.</w>": 8479, "igbo</w>": 8480, "environment,</w>": 8481, "zaa": 8482, "mississi": 8483, "mɔɣilo</w>": 8484, "ashilo</w>": 8485, "science\"</w>": 8486, "science,</w>": 8487, "carlos</w>": 8488, "(ll": 8489, "gunyɔɣu</w>": 8490, "vizcaya</w>": 8491, "ninsalisili</w>": 8492, "bor": 8493, "pedi": 8494, "hy": 8495, "nyindɔɣu</w>": 8496, "(g": 8497, "conne": 8498, "wumbu</w>": 8499, "laɣari</w>": 8500, "sho": 8501, "ale": 8502, "ad,</w>": 8503, "madagascar</w>": 8504, "oscar</w>": 8505, "pɔhim.</w>": 8506, "asymptomatic</w>": 8507, "tiåa,</w>": 8508, "buêa</w>": 8509, "wabgu</w>": 8510, "kaŋ": 8511, "27": 8512, "forson</w>": 8513, "`": 8514, "nandom</w>": 8515, "museveni</w>": 8516, "gumbo": 8517, "marketing,</w>": 8518, "koŋ": 8519, "nottingham</w>": 8520, "abbott</w>": 8521, "risigu</w>": 8522, "toni</w>": 8523, "wuliŋ</w>": 8524, "mtv</w>": 8525, "infor": 8526, "n-dii</w>": 8527, "subsidiary</w>": 8528, "bomiya</w>": 8529, "bron": 8530, "nyurim</w>": 8531, "hearts</w>": 8532, "muɣisirili</w>": 8533, "zino</w>": 8534, "stock</w>": 8535, "hagan</w>": 8536, "salinim</w>": 8537, "cher": 8538, "saɣati</w>": 8539, "black": 8540, "solɔɣu</w>": 8541, "1–": 8542, "vem": 8543, "bce</w>": 8544, "n-duɣiri</w>": 8545, "andré</w>": 8546, "zaɣi": 8547, "yidaannima</w>": 8548, "toondaanima</w>": 8549, "daambalo</w>": 8550, "kpamba,</w>": 8551, "damba,</w>": 8552, "zoomba.</w>": 8553, "denkyira</w>": 8554, "zohi</w>": 8555, "jomoro</w>": 8556, "musi": 8557, "sea</w>": 8558, "gariche</w>": 8559, "tuturi</w>": 8560, "jɛmdiba</w>": 8561, "dachɛhi</w>": 8562, "m-bɔhiri</w>": 8563, "enter": 8564, "murtala</w>": 8565, "quartey</w>": 8566, "kasiɣiribila</w>": 8567, "laɣim,</w>": 8568, "bol": 8569, "umayyad</w>": 8570, "squ": 8571, "boligu</w>": 8572, "pnc</w>": 8573, "yidantɔɣim</w>": 8574, "boca</w>": 8575, "hirili</w>": 8576, "kukɔ": 8577, "saai</w>": 8578, "åan</w>": 8579, "kpɛra</w>": 8580, "operation</w>": 8581, "they</w>": 8582, "mɔɣuni.</w>": 8583, "ɣini</w>": 8584, "loogi</w>": 8585, "lihir’</w>": 8586, "welfare</w>": 8587, "pm)</w>": 8588, "liɛ": 8589, "malaaika</w>": 8590, "ni”,</w>": 8591, "energy,</w>": 8592, "ta,</w>": 8593, "level)</w>": 8594, "foot": 8595, "daani</w>": 8596, "jɛlinsi</w>": 8597, "cus</w>": 8598, "duɣili.</w>": 8599, "minist": 8600, "jintɔraba</w>": 8601, "aviation</w>": 8602, "mina</w>": 8603, "china,</w>": 8604, "voggu</w>": 8605, "shεli.</w>": 8606, "lɔɣiri</w>": 8607, "om</w>": 8608, "napɔ": 8609, "70": 8610, "chinchini.</w>": 8611, "bɔl'ŋmɛra</w>": 8612, "bɔla</w>": 8613, "pon": 8614, "kpɛɣu</w>": 8615, "finance,</w>": 8616, "waan": 8617, "kahigimi</w>": 8618, "bal</w>": 8619, "wuni,</w>": 8620, "yarin": 8621, "abambire</w>": 8622, "tambiɛɣu</w>": 8623, "dili.</w>": 8624, "ɣulo</w>": 8625, "marafanima</w>": 8626, "niɣi,</w>": 8627, "kukɔɣu</w>": 8628, "yusuf</w>": 8629, "akuffo</w>": 8630, "yeri</w>": 8631, "intelli": 8632, "shii</w>": 8633, "1981.</w>": 8634, "kpaɣa</w>": 8635, "bɛ-ni</w>": 8636, "hammad</w>": 8637, "❁</w>": 8638, "zaɣisiya</w>": 8639, "yâliya,</w>": 8640, "dikiya</w>": 8641, "yiliyiiniba</w>": 8642, "amiliya.</w>": 8643, "service)</w>": 8644, "dictionary</w>": 8645, "republic,</w>": 8646, "america,</w>": 8647, "aramaic</w>": 8648, "africanus</w>": 8649, "(s": 8650, "late</w>": 8651, "yiŋnima</w>": 8652, "nevada</w>": 8653, "“zanduu</w>": 8654, "tomi</w>": 8655, "mil": 8656, "nyam": 8657, "novem": 8658, "goli.</w>": 8659, "ʒε": 8660, "yuum</w>": 8661, "alo": 8662, "ofori": 8663, "28": 8664, "program</w>": 8665, "aka</w>": 8666, "dɔɣ</w>": 8667, "shar": 8668, "larigu</w>": 8669, "zara</w>": 8670, "tis</w>": 8671, "jil": 8672, "(200": 8673, "dahinshɛli.</w>": 8674, "kalana</w>": 8675, "tumo,</w>": 8676, "2000.</w>": 8677, "tibili.</w>": 8678, "bi’": 8679, "wei</w>": 8680, "tum,</w>": 8681, "waan</w>": 8682, "sabi'": 8683, "sheba</w>": 8684, "learning</w>": 8685, "ebola</w>": 8686, "kuŋa.</w>": 8687, "fini</w>": 8688, "goals</w>": 8689, "op": 8690, "duodu</w>": 8691, "gramme</w>": 8692, "viri</w>": 8693, "oceania,": 8694, "akufo-addo,</w>": 8695, "shikiri</w>": 8696, "yâlikpana</w>": 8697, "yâlikpan’</w>": 8698, "assyria</w>": 8699, "viɛlli,</w>": 8700, "coastal</w>": 8701, "nayi": 8702, "surve": 8703, "zuŋ</w>": 8704, "ͻ": 8705, "shua</w>": 8706, "commit": 8707, "heat</w>": 8708, "mediterranean</w>": 8709, "\"managing</w>": 8710, "gbaabunima</w>": 8711, "1989,</w>": 8712, "ralana</w>": 8713, "sarisi</w>": 8714, "course</w>": 8715, "bert</w>": 8716, "kwamena</w>": 8717, "dub</w>": 8718, "karim-": 8719, "hoo</w>": 8720, "nintiɣili</w>": 8721, "138</w>": 8722, "pɔin</w>": 8723, "(tamasco)</w>": 8724, "goalscorer</w>": 8725, "geneva</w>": 8726, "yihirila</w>": 8727, "tammɛriba</w>": 8728, "cer</w>": 8729, "masjid</w>": 8730, "tal": 8731, "217</w>": 8732, "lau": 8733, "tiligimisim</w>": 8734, "ziligi</w>": 8735, "vinyaɣilan’</w>": 8736, "lo.</w>": 8737, "zilisigu</w>": 8738, "em": 8739, "1984,</w>": 8740, "m-booi</w>": 8741, "fur": 8742, "alli": 8743, "kaba</w>": 8744, "affairs\"</w>": 8745, "affair": 8746, "amiliya,</w>": 8747, "spain,valencia</w>": 8748, "piri": 8749, "vidence</w>": 8750, "zuŋo</w>": 8751, "zuŋu,</w>": 8752, "tiŋli.</w>": 8753, "jɛrusalɛm.</w>": 8754, "maŋmaŋa.</w>": 8755, "tali": 8756, "dr": 8757, "choɣu</w>": 8758, "dina,</w>": 8759, "alikaw": 8760, "manim’</w>": 8761, "phar": 8762, "kpalan</w>": 8763, "peru</w>": 8764, "zangbalun": 8765, "gɔŋ": 8766, "nina,</w>": 8767, "kabisi</w>": 8768, "sabilim</w>": 8769, "stadi": 8770, "gberi</w>": 8771, "nashaara</w>": 8772, "faara</w>": 8773, "nyali</w>": 8774, "senya</w>": 8775, "hot</w>": 8776, "gal’</w>": 8777, "(u": 8778, "lli": 8779, "hili.</w>": 8780, "ps</w>": 8781, "serie</w>": 8782, "1997.</w>": 8783, "ŋmana.</w>": 8784, "blue</w>": 8785, "stage</w>": 8786, "ek</w>": 8787, "zura</w>": 8788, "m-bɔ": 8789, "yab": 8790, "n-yuui</w>": 8791, "nu'": 8792, "antiquities</w>": 8793, "savelu": 8794, "more</w>": 8795, "abani</w>": 8796, "kpabiri</w>": 8797, "habila</w>": 8798, "labalaba.</w>": 8799, "catherine</w>": 8800, "daagi</w>": 8801, "ashimi</w>": 8802, "ruth</w>": 8803, "georgi": 8804, "games</w>": 8805, "shinimi</w>": 8806, "ɣi,</w>": 8807, "canada,alberta</w>": 8808, "dagɔ": 8809, "wabena</w>": 8810, "sabimi</w>": 8811, "call</w>": 8812, "balle</w>": 8813, "diɣi</w>": 8814, "sakasaka</w>": 8815, "ŋmɛbu,</w>": 8816, "pin": 8817, "taɣi": 8818, "tohaʒee</w>": 8819, "abinɛ": 8820, "naami</w>": 8821, "pinaanu</w>": 8822, "sanaa.</w>": 8823, "siminyu</w>": 8824, "chinese</w>": 8825, "piinimi</w>": 8826, "nest</w>": 8827, "state.</w>": 8828, "aya</w>": 8829, "chisimam</w>": 8830, "kasise</w>": 8831, "labisi.</w>": 8832, "joy</w>": 8833, "surigi</w>": 8834, "female</w>": 8835, "tumayili</w>": 8836, "duri,</w>": 8837, "vuri,</w>": 8838, "kachɛɣu</w>": 8839, "tsatsu</w>": 8840, "tabilakpihi</w>": 8841, "boliŋmɛ": 8842, "broadcasting</w>": 8843, "turi.</w>": 8844, "suhuri.</w>": 8845, "nyaɣisim,</w>": 8846, "yaɣi,</w>": 8847, "hohoe</w>": 8848, "baligi.</w>": 8849, "yiligi</w>": 8850, "nakpayili</w>": 8851, "shitô": 8852, "selous</w>": 8853, "ledzokuku</w>": 8854, "boon</w>": 8855, "polo,northern</w>": 8856, "nyuya,</w>": 8857, "centuries</w>": 8858, "piɛl’</w>": 8859, "paɣila</w>": 8860, "5–": 8861, "ghanao</w>": 8862, "development.</w>": 8863, "nyintahi</w>": 8864, "nintam.</w>": 8865, "ollen": 8866, "6–": 8867, "germany.</w>": 8868, "ancient</w>": 8869, "lurina</w>": 8870, "taɣi,</w>": 8871, "yemen,</w>": 8872, "see": 8873, "mustapha</w>": 8874, "yamusah</w>": 8875, "kuligu</w>": 8876, "dimiya</w>": 8877, "cour": 8878, "ni)</w>": 8879, "wurim.</w>": 8880, "paɣimi</w>": 8881, "nyaɣim</w>": 8882, "katiŋ'</w>": 8883, "naaya</w>": 8884, "n-gahim</w>": 8885, "3%)</w>": 8886, "ori</w>": 8887, "mountain</w>": 8888, "it.</w>": 8889, "zɔ</w>": 8890, "dabindi</w>": 8891, "shei</w>": 8892, "mahamuru</w>": 8893, "talahi,</w>": 8894, "wahi.</w>": 8895, "nahash</w>": 8896, "yisahaku</w>": 8897, "1970.</w>": 8898, "bihim.</w>": 8899, "fish</w>": 8900, "anab’</w>": 8901, "yini,ni</w>": 8902, "nyuuri</w>": 8903, "øia</w>": 8904, "cote</w>": 8905, "ˈ": 8906, "yabdoo</w>": 8907, "gominanti</w>": 8908, "gom.</w>": 8909, "daŋ.</w>": 8910, "other</w>": 8911, "ayili</w>": 8912, "meri</w>": 8913, "tariti</w>": 8914, "piligimi</w>": 8915, "piliŋ</w>": 8916, "salinim’</w>": 8917, "lin</w>": 8918, "maame</w>": 8919, "ŋmaala</w>": 8920, "fan": 8921, "\"assistant</w>": 8922, "timothy</w>": 8923, "birim</w>": 8924, "km²</w>": 8925, "kabɔbili</w>": 8926, "ɣali</w>": 8927, "pollu": 8928, "yaêa</w>": 8929, "hope</w>": 8930, "pope</w>": 8931, "chandi,</w>": 8932, "kpandaa</w>": 8933, "zahandi</w>": 8934, "wôrizôhinima</w>": 8935, "1di</w>": 8936, "baådi</w>": 8937, "ct,</w>": 8938, "doro,</w>": 8939, "subu,</w>": 8940, "250</w>": 8941, "kuro.</w>": 8942, "ayaba</w>": 8943, "kayɛlimuna</w>": 8944, "lahibali.</w>": 8945, "kpaåsi</w>": 8946, "pop</w>": 8947, "mesopotamia</w>": 8948, "nupuɣu</w>": 8949, "yaɣishɛli.</w>": 8950, "shɛlini</w>": 8951, "greta</w>": 8952, "mile</w>": 8953, "mpahi</w>": 8954, "sampana</w>": 8955, "camp</w>": 8956, "kings</w>": 8957, "zalinsi</w>": 8958, "bernard</w>": 8959, "gahindi</w>": 8960, "(née</w>": 8961, "dokura</w>": 8962, "kurim": 8963, "ayopɔin,ni</w>": 8964, "2–0</w>": 8965, "(dɔɣim</w>": 8966, "vihiro</w>": 8967, "samli,</w>": 8968, "od": 8969, "yɛlila</w>": 8970, "birapu</w>": 8971, "biya,</w>": 8972, "naan-yi</w>": 8973, "zaê’</w>": 8974, "rita</w>": 8975, "1973,</w>": 8976, "sheela</w>": 8977, "asheela</w>": 8978, "piligila</w>": 8979, "wɔɣiri</w>": 8980, "wabilaa</w>": 8981, "taabo</w>": 8982, "taali,</w>": 8983, "kpuɣimi</w>": 8984, "gal</w>": 8985, "vidio</w>": 8986, "pid</w>": 8987, "togo</w>": 8988, "morosini</w>": 8989, "yii</w>": 8990, "bunii</w>": 8991, "mɔli</w>": 8992, "kuɣili.</w>": 8993, "alkur’aani</w>": 8994, "zahindila</w>": 8995, "berekum</w>": 8996, "selection</w>": 8997, "zaawuni,</w>": 8998, "firawuna.</w>": 8999, "mandela</w>": 9000, "steel\"</w>": 9001, "neeni</w>": 9002, "kali": 9003, "yuma.</w>": 9004, "kumbuå</w>": 9005, "looya,</w>": 9006, "kobisinahi</w>": 9007, "bolila</w>": 9008, "daboli</w>": 9009, "ɣataɣamalisi.</w>": 9010, "n-nyari</w>": 9011, "offi": 9012, "ul": 9013, "tindaanima</w>": 9014, "pa”</w>": 9015, "nyɛma</w>": 9016, "zim.</w>": 9017, "pirɛ": 9018, "juli": 9019, "zuɣa</w>": 9020, "customs</w>": 9021, "daŋsi</w>": 9022, "zuåô</w>": 9023, "part</w>": 9024, "ater</w>": 9025, "biεr’</w>": 9026, "region”</w>": 9027, "administration,</w>": 9028, "dundɔli</w>": 9029, "kosoli</w>": 9030, "anus</w>": 9031, "biology</w>": 9032, "tibu,</w>": 9033, "zaɣibiɛɣu</w>": 9034, "nibi</w>": 9035, "tasibaha</w>": 9036, "ibadan</w>": 9037, "yɛliba</w>": 9038, "nyaɣisibu</w>": 9039, "mɔɣisibu</w>": 9040, "bibee</w>": 9041, "(saha</w>": 9042, "statistics</w>": 9043, "orange</w>": 9044, "nyaangi</w>": 9045, "biɛlinli</w>": 9046, "salaŋ": 9047, "biɛhisuŋ</w>": 9048, "havard</w>": 9049, "privileges</w>": 9050, "dean</w>": 9051, "gurindoo</w>": 9052, "salinda,</w>": 9053, "honduras</w>": 9054, "kunduna</w>": 9055, "48": 9056, "n-da</w>": 9057, "laws</w>": 9058, "niåda</w>": 9059, "binkɔbiri.</w>": 9060, "kaŋ’</w>": 9061, "laakumi</w>": 9062, "balaam</w>": 9063, "razak</w>": 9064, "muêisi</w>": 9065, "aryee</w>": 9066, "ayôbu</w>": 9067, "wab": 9068, "simnima</w>": 9069, "zooi,</w>": 9070, "binyεr’</w>": 9071, "assembili</w>": 9072, "nyobu</w>": 9073, "kobiliga</w>": 9074, "yinim'</w>": 9075, "manim'</w>": 9076, "mat": 9077, "tro": 9078, "education.</w>": 9079, "channel</w>": 9080, "paɣabu</w>": 9081, "yaɣali.</w>": 9082, "yaɣa.</w>": 9083, "bbu.</w>": 9084, "zangbaluŋ</w>": 9085, "teen</w>": 9086, "behisi</w>": 9087, "agbaa</w>": 9088, "bɔra,</w>": 9089, "bɔrade,</w>": 9090, "bôhi</w>": 9091, "zuɣulan’</w>": 9092, "yɛra.</w>": 9093, "phili": 9094, "al.</w>": 9095, "faransi</w>": 9096, "moonsi</w>": 9097, "bon</w>": 9098, "tɛhimi</w>": 9099, "food</w>": 9100, "sɔŋmi</w>": 9101, "zuɣulan'": 9102, "wadaso</w>": 9103, "waawaayili</w>": 9104, "ayawaso</w>": 9105, "taɣiliŋ</w>": 9106, "daadam-": 9107, "magazine,</w>": 9108, "h,</w>": 9109, "righ": 9110, "1–0</w>": 9111, "saɣ'</w>": 9112, "bachizaana.</w>": 9113, "gbarizam</w>": 9114, "baŋya</w>": 9115, "yiɣisi,</w>": 9116, "zanduu-naa</w>": 9117, "leader</w>": 9118, "tammi</w>": 9119, "nimmoo</w>": 9120, "dimma</w>": 9121, "niŋsim": 9122, "ppi</w>": 9123, "pukpariba,</w>": 9124, "ɣukam.</w>": 9125, "ohi": 9126, "afua</w>": 9127, "+": 9128, "red": 9129, "giant</w>": 9130, "dabsa</w>": 9131, "åma</w>": 9132, "daabilgu</w>": 9133, "(4": 9134, "heart</w>": 9135, "douglas</w>": 9136, "ashitey</w>": 9137, "tuhituhi</w>": 9138, "nil</w>": 9139, "/=,</w>": 9140, "susuuni</w>": 9141, "krowor</w>": 9142, "gbuligi</w>": 9143, "kulahi</w>": 9144, "duulan'</w>": 9145, "salatul</w>": 9146, "paɣapuulana</w>": 9147, "bulli</w>": 9148, "sisɛ": 9149, "1992.</w>": 9150, "ni?</w>": 9151, "wɔbi</w>": 9152, "bron</w>": 9153, "alizimba</w>": 9154, "lord</w>": 9155, "dundôå</w>": 9156, "biɛni.</w>": 9157, "nortey</w>": 9158, "olu": 9159, "1969,</w>": 9160, "sarpong</w>": 9161, "lem(ndc)": 9162, "shɛlinli</w>": 9163, "hannah</w>": 9164, "e\"</w>": 9165, "wɔɣira.</w>": 9166, "digital</w>": 9167, "n-wu": 9168, "yil'</w>": 9169, "rawlings,</w>": 9170, "damongo</w>": 9171, "mal</w>": 9172, "issaka</w>": 9173, "adjetey</w>": 9174, "mirila</w>": 9175, "kpaŋsirila</w>": 9176, "daliri,</w>": 9177, "empire,</w>": 9178, "taizira</w>": 9179, "round</w>": 9180, "milan</w>": 9181, "miles</w>": 9182, "zoli,</w>": 9183, "binshaɣu</w>": 9184, "abo": 9185, "(2008)</w>": 9186, "naɣ'": 9187, "firitali</w>": 9188, "citadel</w>": 9189, "traditional</w>": 9190, "maritime</w>": 9191, "writer</w>": 9192, "kuriti,</w>": 9193, "mɛmi</w>": 9194, "over</w>": 9195, "koodaa</w>": 9196, "paɣ'so</w>": 9197, "maŋ'sulinsi</w>": 9198, "worth</w>": 9199, "ñ": 9200, "yɔ</w>": 9201, "where</w>": 9202, "tinŋ</w>": 9203, "wave</w>": 9204, "league,</w>": 9205, "economic,</w>": 9206, "s-": 9207, "*:": 9208, "sɔŋdiba</w>": 9209, "akua</w>": 9210, "leg</w>": 9211, "malshegu</w>": 9212, "neeg’</w>": 9213, "gbiriba</w>": 9214, "shitɔri</w>": 9215, "waazu.</w>": 9216, "pihinu.</w>": 9217, "gahindili.</w>": 9218, "kpamdi</w>": 9219, "gamdi</w>": 9220, "g.</w>": 9221, "gbin’</w>": 9222, "ɣima</w>": 9223, "dabisi'</w>": 9224, "xi": 9225, "gao</w>": 9226, "guuri</w>": 9227, "ziŋ’</w>": 9228, "yidaan’</w>": 9229, "chin’</w>": 9230, "\"district</w>": 9231, "tuliga</w>": 9232, "sh</w>": 9233, "studies\"</w>": 9234, "biliɛri</w>": 9235, "n-lɛri</w>": 9236, "daantalisi</w>": 9237, "ss</w>": 9238, "ports</w>": 9239, "yussif</w>": 9240, "agyeman-": 9241, "kati": 9242, "nkoranza</w>": 9243, "t\"</w>": 9244, "m-bɔra</w>": 9245, "balibu": 9246, "bid</w>": 9247, "yεri</w>": 9248, "val</w>": 9249, "tuɣa</w>": 9250, "ibrahimma</w>": 9251, "tiɛha</w>": 9252, "das</w>": 9253, "ع": 9254, "31,</w>": 9255, "yaku": 9256, "dabba.</w>": 9257, "alhaj</w>": 9258, "yɔɣuni,</w>": 9259, "ya’</w>": 9260, "sa’</w>": 9261, "plant</w>": 9262, "sakɔ": 9263, "a”</w>": 9264, "ewe</w>": 9265, "ctor</w>": 9266, "baŋda.</w>": 9267, "gabaadaya</w>": 9268, "1993,</w>": 9269, "buganda</w>": 9270, "cup.</w>": 9271, "bupia</w>": 9272, "muɣili</w>": 9273, "during</w>": 9274, "kubo</w>": 9275, "nyʋ</w>": 9276, "tamtam</w>": 9277, "ɣasi</w>": 9278, "niŋya</w>": 9279, "marie</w>": 9280, "sapashin": 9281, "65</w>": 9282, "greenhouse</w>": 9283, "lod": 9284, "mion-": 9285, "ŋmɛra.</w>": 9286, "1920</w>": 9287, "gingalayɔɣu</w>": 9288, "luɣ’shɛŋa</w>": 9289, "dabeen": 9290, "williams</w>": 9291, "az</w>": 9292, "ninsal'</w>": 9293, "ninsalinima.</w>": 9294, "(20)</w>": 9295, "awolowo</w>": 9296, "el-": 9297, "dagbɔŋ.</w>": 9298, "tu,</w>": 9299, "zan’</w>": 9300, "din-": 9301, "baandɔɣu</w>": 9302, "m-bahi.</w>": 9303, "m-baŋdi</w>": 9304, "\"seventh</w>": 9305, "nir": 9306, "dambu</w>": 9307, "kpuɣinambu</w>": 9308, "tambu</w>": 9309, "shili.</w>": 9310, "duzuɣiri</w>": 9311, "yiɣi": 9312, "َا": 9313, "zini</w>": 9314, "kparibɔɣiri</w>": 9315, "abeng</w>": 9316, "’shâåa</w>": 9317, "tampion": 9318, "siŋ</w>": 9319, "anne</w>": 9320, "mosque</w>": 9321, "labiɛla</w>": 9322, "labiɛ": 9323, "ad.</w>": 9324, "made</w>": 9325, "prix</w>": 9326, "future</w>": 9327, "che.</w>": 9328, "kpamba.</w>": 9329, "1975)</w>": 9330, "(1,": 9331, "nyɛlinga.</w>": 9332, "april,</w>": 9333, "stan": 9334, "m-mi": 9335, "bɛni,</w>": 9336, "n-lihiri</w>": 9337, "zomi</w>": 9338, "zoma.</w>": 9339, "malaysia</w>": 9340, "luŋtali</w>": 9341, "midfielder</w>": 9342, "galiwe-naa</w>": 9343, "band</w>": 9344, "scottish</w>": 9345, "little</w>": 9346, "piibu.</w>": 9347, "quebec</w>": 9348, "agreement</w>": 9349, "cynthia</w>": 9350, "n-dira</w>": 9351, "graphic</w>": 9352, "bru": 9353, "abimilɛk</w>": 9354, "takɔro</w>": 9355, "ɔ</w>": 9356, "yiha</w>": 9357, "ta.</w>": 9358, "milli": 9359, "gres": 9360, "1892</w>": 9361, "kon": 9362, "lɔbanima</w>": 9363, "applied</w>": 9364, "ʒamani</w>": 9365, "zaŋna</w>": 9366, "jee</w>": 9367, "nachimba,</w>": 9368, "kpiimba.</w>": 9369, "dimbalanim</w>": 9370, "olawsky</w>": 9371, "julius</w>": 9372, "harcourt</w>": 9373, "hr": 9374, "bot": 9375, "nyeri</w>": 9376, "wel": 9377, "baa,</w>": 9378, "chirichi</w>": 9379, "next</w>": 9380, "ten</w>": 9381, "1980,</w>": 9382, "aster": 9383, "bɛba</w>": 9384, "ks</w>": 9385, "development\"</w>": 9386, "about</w>": 9387, "dôê": 9388, "suhupiɛlli,</w>": 9389, "tola</w>": 9390, "ernest</w>": 9391, "siɣili,</w>": 9392, "du,</w>": 9393, "wer": 9394, "zuhi</w>": 9395, "lara</w>": 9396, "kokpɛɣu</w>": 9397, "nyihi</w>": 9398, "pariga</w>": 9399, "kaŋa</w>": 9400, "dɔɣira</w>": 9401, "gbahiriba</w>": 9402, "jackson</w>": 9403, "vaksin</w>": 9404, "savelugu.</w>": 9405, "augustine's</w>": 9406, "palo.</w>": 9407, "co,</w>": 9408, "ín</w>": 9409, "sochibiga</w>": 9410, "tusua</w>": 9411, "nahiŋgbana</w>": 9412, "kohibu</w>": 9413, "1917</w>": 9414, "dirimi</w>": 9415, "analy": 9416, "andunia’</w>": 9417, "paabu</w>": 9418, "yuŋ,</w>": 9419, "pinaata</w>": 9420, "aliwalla</w>": 9421, "sampson</w>": 9422, "rili.</w>": 9423, "lihila</w>": 9424, "lihirila</w>": 9425, "many.</w>": 9426, "toha": 9427, "9,</w>": 9428, "wuntaŋ'</w>": 9429, "jɛhɔ": 9430, "metz</w>": 9431, "tinzun</w>": 9432, "åmâ": 9433, "machɛligu</w>": 9434, "machɛlinim</w>": 9435, "viɛliga</w>": 9436, "“a</w>": 9437, "!”</w>": 9438, "urban</w>": 9439, "zaɣasim</w>": 9440, "ŋ-ŋɔ,</w>": 9441, "ِ</w>": 9442, "mani": 9443, "ws</w>": 9444, "shεli,</w>": 9445, "shεŋa,</w>": 9446, "it": 9447, "paligiya</w>": 9448, "vuligiya</w>": 9449, "gaani</w>": 9450, "benfica</w>": 9451, "ctions</w>": 9452, "villa</w>": 9453, "dô": 9454, "gs</w>": 9455, "dabisi": 9456, "ladi": 9457, "n-pahi</w>": 9458, "tiŋkarili</w>": 9459, "mouth</w>": 9460, "compu": 9461, "tina</w>": 9462, "ŋmɛlim</w>": 9463, "mas</w>": 9464, "pan": 9465, "agu": 9466, "“di": 9467, "x,</w>": 9468, "chɔ": 9469, "cheshe": 9470, "zuɣu,": 9471, "’,</w>": 9472, "wen": 9473, "december,</w>": 9474, "bɔhimbu,</w>": 9475, "daambilo</w>": 9476, "gambia</w>": 9477, "wumboligu</w>": 9478, "viɛl'</w>": 9479, "ā": 9480, "sabilim.</w>": 9481, "niɣilimbuɣim</w>": 9482, "sakɔɣu</w>": 9483, "faatihi</w>": 9484, "yil'gɔ": 9485, "rus</w>": 9486, "dollar,</w>": 9487, "yɛlimu": 9488, "lεbigi</w>": 9489, "shɛhira,</w>": 9490, "pahiya,</w>": 9491, "piniyini</w>": 9492, "guliyili</w>": 9493, "teiya</w>": 9494, "س": 9495, "pur": 9496, "nila</w>": 9497, "gushɛ": 9498, "daarizichi</w>": 9499, "academic</w>": 9500, "patricia</w>": 9501, "anglican</w>": 9502, "certificate\"</w>": 9503, "dickson</w>": 9504, "biri": 9505, "11th</w>": 9506, "asansabiliga</w>": 9507, "aja": 9508, "spe": 9509, "laŋ": 9510, "poo": 9511, "kwadaso</w>": 9512, "ón</w>": 9513, "atlético</w>": 9514, "nahiŋgu</w>": 9515, "1983,</w>": 9516, "palm</w>": 9517, "tutu</w>": 9518, "walim</w>": 9519, "benchmark</w>": 9520, "taxonomy\"</w>": 9521, "nurses</w>": 9522, "ɣima.</w>": 9523, "o\"</w>": 9524, "buyɔbu</w>": 9525, "yaɣ'li</w>": 9526, "sulinsi,</w>": 9527, "westminster</w>": 9528, "salinsalinda</w>": 9529, "bry": 9530, "ninvuɣu": 9531, "jaa</w>": 9532, "%),</w>": 9533, "zugu.</w>": 9534, "rison</w>": 9535, "n-kpi</w>": 9536, "dale),</w>": 9537, "physici": 9538, "bab</w>": 9539, "solo</w>": 9540, "molo.</w>": 9541, "holdings</w>": 9542, "polɔ": 9543, "yuun'pia</w>": 9544, "dovihi</w>": 9545, "m/a</w>": 9546, "dimnima</w>": 9547, "eg": 9548, "asali</w>": 9549, "<ka></w>": 9550, "asutifi</w>": 9551, "m-bô": 9552, "lisi</w>": 9553, "lɛbiri</w>": 9554, "lɛbanɔn</w>": 9555, "balo</w>": 9556, "dana,</w>": 9557, "sara,</w>": 9558, "sala.</w>": 9559, "had": 9560, "de,</w>": 9561, "executi": 9562, "nyɛ:</w>": 9563, "tirika’</w>": 9564, "katikiisi</w>": 9565, "dɔɣirikpamba</w>": 9566, "kikahi</w>": 9567, "kemikals</w>": 9568, "kikah’</w>": 9569, "nuuni.</w>": 9570, "nuu,</w>": 9571, "malimali</w>": 9572, "nio</w>": 9573, "1986.</w>": 9574, "northeastern</w>": 9575, "primari": 9576, "leading</w>": 9577, "break.</w>": 9578, "cler": 9579, "1989.</w>": 9580, "(26)</w>": 9581, "churchill</w>": 9582, "vel</w>": 9583, "asare</w>": 9584, "seri": 9585, "sakpalee": 9586, "edubiase</w>": 9587, "tary</w>": 9588, "tamasco</w>": 9589, "amoako</w>": 9590, "semi-": 9591, "kahim</w>": 9592, "20,000</w>": 9593, "ّ": 9594, "chilim</w>": 9595, "nirilim</w>": 9596, "jɛrilim</w>": 9597, "ashiloni</w>": 9598, "zilim</w>": 9599, "nirilim.</w>": 9600, "zilim’</w>": 9601, "wɔɣila.</w>": 9602, "freedom</w>": 9603, "dolisigu</w>": 9604, "pim</w>": 9605, "palmyra,</w>": 9606, "piibu": 9607, "katigori</w>": 9608, "11": 9609, "ŋɔ:</w>": 9610, "sas</w>": 9611, "₵": 9612, "sc</w>": 9613, "yɔhi": 9614, "dinzuŋu</w>": 9615, "ŋmamprugu</w>": 9616, "lun</w>": 9617, "anfooninima</w>": 9618, "bigin": 9619, "effi": 9620, "liginsim</w>": 9621, "marfo</w>": 9622, "1905</w>": 9623, "zoligɔ": 9624, "boriba</w>": 9625, "teri": 9626, "egyptian</w>": 9627, "karikari</w>": 9628, "sky</w>": 9629, "gaŋsi</w>": 9630, "tiŋpuuni</w>": 9631, "anim</w>": 9632, "employment</w>": 9633, "wiz": 9634, "reli": 9635, "rib</w>": 9636, "sub-": 9637, "zabaɣa</w>": 9638, "wn</w>": 9639, "daaʒia</w>": 9640, "“nira</w>": 9641, "dagaare</w>": 9642, "kaari</w>": 9643, "pro</w>": 9644, "tace</w>": 9645, "savan": 9646, "region,ghana,</w>": 9647, "people’s</w>": 9648, "1940</w>": 9649, "hanna</w>": 9650, "liŋ</w>": 9651, "bi'biɛhi</w>": 9652, "yɛlmuɣisira</w>": 9653, "desi": 9654, "tanko</w>": 9655, "karl</w>": 9656, "colum": 9657, "dok": 9658, "binnεma</w>": 9659, "primaries</w>": 9660, "tadrart</w>": 9661, "kpɛrikpɛtiba</w>": 9662, "gbunni.</w>": 9663, "became</w>": 9664, "n-leegi</w>": 9665, "nyo": 9666, "le.</w>": 9667, "daam": 9668, "surigu</w>": 9669, "øili</w>": 9670, "hiya</w>": 9671, "convention,</w>": 9672, "meters</w>": 9673, "taɣ’</w>": 9674, "binim’</w>": 9675, "agbotu": 9676, "kanvili</w>": 9677, "fin": 9678, "da'": 9679, "ting</w>": 9680, "chim": 9681, "jina.</w>": 9682, "tinim</w>": 9683, "gala": 9684, "para</w>": 9685, "august,</w>": 9686, "gbira</w>": 9687, "notes</w>": 9688, "appointments</w>": 9689, "38": 9690, "pin</w>": 9691, "10-": 9692, "1896</w>": 9693, "cancer</w>": 9694, "yala.</w>": 9695, "ɣala</w>": 9696, "tuuntumdiba</w>": 9697, "tintarisi</w>": 9698, "integrated</w>": 9699, "entrance</w>": 9700, "kpaliŋ": 9701, "ku,</w>": 9702, "viεla</w>": 9703, "chini.</w>": 9704, "jaamani</w>": 9705, "palim</w>": 9706, "ʒɛngama</w>": 9707, "chur": 9708, "anii,ni</w>": 9709, "kanami</w>": 9710, "native</w>": 9711, "lamingo</w>": 9712, "sunsu": 9713, "antonio</w>": 9714, "liiga</w>": 9715, "kuna.</w>": 9716, "luna.</w>": 9717, "tamali,</w>": 9718, "coral</w>": 9719, "member\"</w>": 9720, "kum,</w>": 9721, "gbali.</w>": 9722, "shiɛ": 9723, "mahili.</w>": 9724, "rose</w>": 9725, "honorary</w>": 9726, "nyan</w>": 9727, "nyama,</w>": 9728, "sham,</w>": 9729, "bin'niɛma</w>": 9730, "cheri</w>": 9731, "yɛlimaŋ'</w>": 9732, "yaba,</w>": 9733, "ŋma,</w>": 9734, "ŋman</w>": 9735, "bello</w>": 9736, "kpain</w>": 9737, "kwabena</w>": 9738, "adam,</w>": 9739, "daadama,</w>": 9740, "aden</w>": 9741, "hnd</w>": 9742, "r)</w>": 9743, "eu": 9744, "tumda,</w>": 9745, "biga.</w>": 9746, "lem": 9747, "gur</w>": 9748, "gs": 9749, "chase</w>": 9750, "alasani</w>": 9751, "dasara</w>": 9752, "haliya</w>": 9753, "finafali</w>": 9754, "barbara</w>": 9755, "talim</w>": 9756, "koo,</w>": 9757, "nail</w>": 9758, "kasi,</w>": 9759, "sababi</w>": 9760, "gabo</w>": 9761, "gabon</w>": 9762, "ŋmabu.</w>": 9763, "kabo</w>": 9764, "kabina</w>": 9765, "●</w>": 9766, "babylonian</w>": 9767, "karinaa</w>": 9768, "qui": 9769, "station</w>": 9770, "chagas</w>": 9771, "sagbani</w>": 9772, "achiri</w>": 9773, "wariba</w>": 9774, "linima</w>": 9775, "robɔ": 9776, "ghadames</w>": 9777, "afanim</w>": 9778, "yɛlima,</w>": 9779, "shell</w>": 9780, "ascariasis</w>": 9781, "takai</w>": 9782, "zaka.</w>": 9783, "fiɛbiga</w>": 9784, "(30</w>": 9785, "forests</w>": 9786, "kɔbil’</w>": 9787, "taligu</w>": 9788, "ne.</w>": 9789, "lurila</w>": 9790, "barila</w>": 9791, "kab’</w>": 9792, "survey</w>": 9793, "pality</w>": 9794, "galisi.</w>": 9795, "korisi</w>": 9796, "dalasis</w>": 9797, "jiso</w>": 9798, "valisi</w>": 9799, "vurigi</w>": 9800, "zoora</w>": 9801, "saɣim,</w>": 9802, "dagbani,</w>": 9803, "saɣi,</w>": 9804, "ɣa": 9805, "nyaɣisili</w>": 9806, "akainyah</w>": 9807, "sarah</w>": 9808, "farah</w>": 9809, "soŋbu</w>": 9810, "wumisi</w>": 9811, "gbuɣi</w>": 9812, "buɣisili</w>": 9813, "dima.</w>": 9814, "anahi": 9815, "yinyari.</w>": 9816, "pina.</w>": 9817, "banda</w>": 9818, "ila</w>": 9819, "yilima</w>": 9820, "yihimi</w>": 9821, "your</w>": 9822, "melaleu": 9823, "ladesh</w>": 9824, "guli,</w>": 9825, "west": 9826, "(nyɛla</w>": 9827, "vention</w>": 9828, "me,</w>": 9829, "sabigi,</w>": 9830, "shɛ</w>": 9831, "karigu</w>": 9832, "zoorigu</w>": 9833, "ghana's</w>": 9834, "loora.</w>": 9835, "beni": 9836, "لِ": 9837, "sapashinima</w>": 9838, "sibu</w>": 9839, "aku</w>": 9840, "lɔ</w>": 9841, "ninyino</w>": 9842, "nyini,</w>": 9843, "silimiin": 9844, "akpataashi</w>": 9845, "tulu</w>": 9846, "nia.</w>": 9847, "amaŋ’</w>": 9848, "tipawumli</w>": 9849, "ate</w>": 9850, "barima</w>": 9851, "laɣimya</w>": 9852, "yimyim</w>": 9853, "yimaŋ’</w>": 9854, "million.</w>": 9855, "1963,</w>": 9856, "leuser</w>": 9857, "winter</w>": 9858, "yinyaa.</w>": 9859, "godfred</w>": 9860, "gbaliŋ.</w>": 9861, "daliŋ</w>": 9862, "zabira</w>": 9863, "dow</w>": 9864, "b.</w>": 9865, "luŋa.</w>": 9866, "lahabali,</w>": 9867, "bilahi</w>": 9868, "talahi.</w>": 9869, "fahim</w>": 9870, "pinanahi</w>": 9871, "pahari</w>": 9872, "zaaha</w>": 9873, "komahim,</w>": 9874, "tamaha</w>": 9875, "pah’</w>": 9876, "ghana": 9877, "ritori": 9878, "zaŋo</w>": 9879, "gbihira.</w>": 9880, "mabihili</w>": 9881, "gbihiri</w>": 9882, "gbihirimi,</w>": 9883, "kpaliga</w>": 9884, "bede</w>": 9885, "eden</w>": 9886, "cedis</w>": 9887, "dooyili</w>": 9888, "2di</w>": 9889, "ɤ": 9890, "hamid</w>": 9891, "kumasi.</w>": 9892, "kwan": 9893, "ho.</w>": 9894, "daŋa.</w>": 9895, "yaakooro</w>": 9896, "yaara</w>": 9897, "yaanim</w>": 9898, "yaalana</w>": 9899, "biriti</w>": 9900, "zabaɣisi,</w>": 9901, "baɣisi,</w>": 9902, "galili</w>": 9903, "laana.</w>": 9904, "llinois</w>": 9905, "kpaå</w>": 9906, "hill</w>": 9907, "puhim</w>": 9908, "imperial</w>": 9909, "street),</w>": 9910, "dance": 9911, "industri": 9912, "tandi.</w>": 9913, "jandila</w>": 9914, "sanda</w>": 9915, "sandi</w>": 9916, "muɣusigu</w>": 9917, "bilisiri</w>": 9918, "kasubi</w>": 9919, "hama</w>": 9920, "biɔŋ</w>": 9921, "ŋmaaya</w>": 9922, "naaya.</w>": 9923, "ʒεhara</w>": 9924, "dimbɔŋɔnima</w>": 9925, "samli.</w>": 9926, "asi.</w>": 9927, "1977)</w>": 9928, "1977.</w>": 9929, "waligiri</w>": 9930, "tuɣiri-nam</w>": 9931, "copper</w>": 9932, "keta</w>": 9933, "ampem</w>": 9934, "ŋmamprisi</w>": 9935, "ŋmampurisi,</w>": 9936, "bonwire</w>": 9937, "yiŋga</w>": 9938, "dakuɣiri</w>": 9939, "baŋda,</w>": 9940, "sokam,</w>": 9941, "kookali</w>": 9942, "youth,</w>": 9943, "paliya</w>": 9944, "ŋari": 9945, "kuuri</w>": 9946, "gulila</w>": 9947, "dɛ</w>": 9948, "zoli.</w>": 9949, "1960": 9950, "bye</w>": 9951, "gbaŋ'</w>": 9952, "nangban": 9953, "doonila</w>": 9954, "varo": 9955, "min'</w>": 9956, "pier": 9957, "hini</w>": 9958, "taataa</w>": 9959, "taada,</w>": 9960, "taadanima</w>": 9961, "dataa</w>": 9962, "taala</w>": 9963, "servi": 9964, "ŋo.</w>": 9965, "nidi</w>": 9966, "tahidu</w>": 9967, "nidaa</w>": 9968, "masidɔ": 9969, "costa</w>": 9970, "osu</w>": 9971, "braska</w>": 9972, "ayii</w>": 9973, "amii</w>": 9974, "ii,</w>": 9975, "tipariga</w>": 9976, "adwoa</w>": 9977, "akwa</w>": 9978, "tempane</w>": 9979, "tuumbiɛ": 9980, "bineenbihi</w>": 9981, "yeri": 9982, "zaɣim</w>": 9983, "afeku</w>": 9984, "manhyia</w>": 9985, "primaries\"</w>": 9986, "awuni</w>": 9987, "5,000</w>": 9988, "guŋa,</w>": 9989, "range</w>": 9990, "iv": 9991, "yuuma</w>": 9992, "(m": 9993, "dolimi</w>": 9994, "kɔŋa</w>": 9995, "sum</w>": 9996, "simiinti</w>": 9997, "pirila</w>": 9998, "yɛlimuɣisiri</w>": 9999, "aaya</w>": 10000, "ب": 10001, "dibaanahi</w>": 10002, "jiŋ'</w>": 10003, "wɔriti</w>": 10004, "les": 10005, "ɡu</w>": 10006, "ya”</w>": 10007, "cture</w>": 10008, "pre": 10009, "riba.</w>": 10010, "zibi</w>": 10011, "so'shɛli</w>": 10012, "nachin": 10013, "sarinsi</w>": 10014, "tabigi</w>": 10015, "(c": 10016, "toliŋ</w>": 10017, "dunoli.</w>": 10018, "dɔhi</w>": 10019, "alaafe</w>": 10020, "(bee</w>": 10021, "1469</w>": 10022, "zaɣisibu</w>": 10023, "kpibisi.</w>": 10024, "bidib'</w>": 10025, "gbarigibu</w>": 10026, "benibu</w>": 10027, "bibili</w>": 10028, "tabibu</w>": 10029, "asiba,</w>": 10030, "asiba.</w>": 10031, "tibisa</w>": 10032, "taɣibu,</w>": 10033, "n-tibigiri</w>": 10034, "piibi</w>": 10035, "tiba,</w>": 10036, "shaibu</w>": 10037, "hayibor</w>": 10038, "gbibbu</w>": 10039, "yilibu,</w>": 10040, "halibiɛrinima</w>": 10041, "baɣibuɣiriba</w>": 10042, "ribɛ": 10043, "buɣisibu.</w>": 10044, "zanima</w>": 10045, "hellenistic</w>": 10046, "dramatic</w>": 10047, "pɔhim": 10048, "m-pii</w>": 10049, "cia</w>": 10050, "laŋ’</w>": 10051, "tampion,</w>": 10052, "wizkid</w>": 10053, "laɣiŋ": 10054, "deen'</w>": 10055, "wun'</w>": 10056, "chisi</w>": 10057, "ro.</w>": 10058, "(kamani</w>": 10059, "ayopoin.</w>": 10060, "yuun": 10061, "provin": 10062, "yendi.</w>": 10063, "vondee</w>": 10064, "goondaa</w>": 10065, "london.</w>": 10066, "1957,</w>": 10067, "kuɣuli</w>": 10068, "zuɣ": 10069, "tinkpan</w>": 10070, "ankara.</w>": 10071, "munkaila</w>": 10072, "adinku</w>": 10073, "tankpa</w>": 10074, "firanki</w>": 10075, "yaŋɔ</w>": 10076, "m-paŋ</w>": 10077, "tiŋshɛŋa</w>": 10078, "laadi</w>": 10079, "alaasan</w>": 10080, "spain,sevilla</w>": 10081, "luhi,</w>": 10082, "reverend</w>": 10083, "apɔi</w>": 10084, "wooi</w>": 10085, "chuu": 10086, "has": 10087, "ayobu.</w>": 10088, "pobi</w>": 10089, "boba</w>": 10090, "toobu</w>": 10091, "n-suri</w>": 10092, "waagase</w>": 10093, "salnima</w>": 10094, "zaɣ": 10095, "ŋɔŋ</w>": 10096, "kokpaɣu</w>": 10097, "kakpaɣu</w>": 10098, "paɣananga</w>": 10099, "simsiri</w>": 10100, "nyimsa</w>": 10101, "fatima</w>": 10102, "enterprises</w>": 10103, "leeza</w>": 10104, "kɔm.</w>": 10105, "also</w>": 10106, "maaa</w>": 10107, "bill": 10108, "yirimina</w>": 10109, "94</w>": 10110, "baasali</w>": 10111, "(d": 10112, "mai": 10113, "ɣindi</w>": 10114, "yaɣilinima</w>": 10115, "an's</w>": 10116, "da)</w>": 10117, "girama</w>": 10118, "constituensi</w>": 10119, "kinkansi</w>": 10120, "kuunsi</w>": 10121, "guŋgɔŋ</w>": 10122, "sto": 10123, "manitoba</w>": 10124, "yiadom</w>": 10125, "dawama</w>": 10126, "yushaw</w>": 10127, "pawa</w>": 10128, "tuɣilibu</w>": 10129, "bidɔɣiligu</w>": 10130, "kurigu.</w>": 10131, "issifu</w>": 10132, "if</w>": 10133, "sabilifaa</w>": 10134, "tira.</w>": 10135, "alizini</w>": 10136, "members</w>": 10137, "n-yiɣisi</w>": 10138, "2012)</w>": 10139, "abie</w>": 10140, "kpahimmi</w>": 10141, "filiŋ,</w>": 10142, "dukpini</w>": 10143, "tukari</w>": 10144, "ninvuɣukuriba</w>": 10145, "bukpahinim’</w>": 10146, "blu": 10147, "tuhira</w>": 10148, "mombasa</w>": 10149, "actors</w>": 10150, "ayɔbu,ni</w>": 10151, "l)</w>": 10152, "ʒiɛŋ</w>": 10153, "kuɣi": 10154, "ndp</w>": 10155, "abudu-": 10156, "suura</w>": 10157, "binnamdili</w>": 10158, "\"british</w>": 10159, "yuuli</w>": 10160, "musulin</w>": 10161, "tulim,</w>": 10162, "bulooku</w>": 10163, "pulaa</w>": 10164, "dulim,</w>": 10165, "wan</w>": 10166, "oti": 10167, "paasita</w>": 10168, "bindir'</w>": 10169, "benezer</w>": 10170, "niti": 10171, "lawrence</w>": 10172, "wɔbilaa</w>": 10173, "wɔbisi</w>": 10174, "kpimba</w>": 10175, "deemba</w>": 10176, "ore</w>": 10177, "ster</w>": 10178, "birili.</w>": 10179, "yɔɣi</w>": 10180, "leo</w>": 10181, "good</w>": 10182, "ʒɛya</w>": 10183, "(1947),</w>": 10184, "nyari": 10185, "nyaaŋa,": 10186, "kuŋ,</w>": 10187, "19)</w>": 10188, "phate</w>": 10189, "gilibu</w>": 10190, "gili.</w>": 10191, "preparatory</w>": 10192, "care</w>": 10193, "tɔb'</w>": 10194, "abongo</w>": 10195, "yinga</w>": 10196, "singapore</w>": 10197, "gungɔŋ</w>": 10198, "nahingban</w>": 10199, "processing</w>": 10200, "youngest</w>": 10201, "ningo</w>": 10202, "gunung</w>": 10203, "engineering,</w>": 10204, "now</w>": 10205, "napɔna</w>": 10206, "suhigu.</w>": 10207, "south,</w>": 10208, "nomination</w>": 10209, "pooi.</w>": 10210, "development,</w>": 10211, "ŋmanla</w>": 10212, "gbɛhi</w>": 10213, "rights,</w>": 10214, "bro": 10215, "bukit</w>": 10216, "mirisi</w>": 10217, "shɛhira;</w>": 10218, "sirigu</w>": 10219, "yiɣisirila</w>": 10220, "lir’</w>": 10221, "family</w>": 10222, "ty,</w>": 10223, "kpilli.</w>": 10224, "mini,": 10225, "jɛritali,</w>": 10226, "universiti</w>": 10227, "minority</w>": 10228, "hospital,</w>": 10229, "cities</w>": 10230, "edition</w>": 10231, "zenith</w>": 10232, "capital</w>": 10233, "fritz</w>": 10234, "authority.</w>": 10235, "titaŋa</w>": 10236, "birita</w>": 10237, "tital’</w>": 10238, "109</w>": 10239, "binyɛra,</w>": 10240, "kathleen</w>": 10241, "kodu</w>": 10242, "nickel-": 10243, "chɛchɛ</w>": 10244, "euro": 10245, "ç": 10246, "gence</w>": 10247, "gbab’</w>": 10248, "law\"</w>": 10249, "d-": 10250, "“bi": 10251, "amara": 10252, "tinŋ'shɛli</w>": 10253, "alepilenima</w>": 10254, "alapilee</w>": 10255, "neegi</w>": 10256, "leeg’</w>": 10257, "deeg’</w>": 10258, "tuzopaɣa</w>": 10259, "galli</w>": 10260, "nahu.</w>": 10261, "art.</w>": 10262, "porto</w>": 10263, "arts,</w>": 10264, "short</w>": 10265, "kurt</w>": 10266, "dabin’</w>": 10267, "kachaɣu</w>": 10268, "suli": 10269, "tinkpan’</w>": 10270, "alizin’</w>": 10271, "zim": 10272, "machɛla</w>": 10273, "ʒiɛla</w>": 10274, "liɣri</w>": 10275, "ŋmariga</w>": 10276, "jangbariga</w>": 10277, "tɛ</w>": 10278, "niɛm</w>": 10279, "zaɣa.</w>": 10280, "jira</w>": 10281, "kuɣila</w>": 10282, "camero": 10283, "limsiri</w>": 10284, "m'": 10285, "theodosia</w>": 10286, "daanfa": 10287, "nav": 10288, "assembly.</w>": 10289, ".": 10290, "72</w>": 10291, "piɛlaa</w>": 10292, "kpaŋa,</w>": 10293, "ligibu</w>": 10294, "mahamadiya</w>": 10295, "walewale</w>": 10296, "malishɛɣu</w>": 10297, "chɛulɔ": 10298, "napɔŋ.</w>": 10299, "artiste</w>": 10300, "gdp</w>": 10301, "guŋkaa</w>": 10302, "abbasid</w>": 10303, "zabba</w>": 10304, "kɔbbaligu</w>": 10305, "dobba</w>": 10306, "mahigi</w>": 10307, "n-kahigi</w>": 10308, "gbaaibu</w>": 10309, "tindaantali</w>": 10310, "zuɣulantali</w>": 10311, "saaka</w>": 10312, "tabisi</w>": 10313, "braimah</w>": 10314, "(11)</w>": 10315, "wul</w>": 10316, "hermann</w>": 10317, "asokore</w>": 10318, "canada,manitoba</w>": 10319, "damda</w>": 10320, "kalinli,</w>": 10321, "pɔbiri</w>": 10322, "victus</w>": 10323, "zuɣupuri</w>": 10324, "coupe</w>": 10325, "zuɣupila.</w>": 10326, "zuɣupilisi</w>": 10327, "win</w>": 10328, "[lower-alpha</w>": 10329, "pakurugu</w>": 10330, "can": 10331, "building</w>": 10332, "neu": 10333, "lɔra</w>": 10334, "year": 10335, "chɔɣima.</w>": 10336, "sapu": 10337, "2030</w>": 10338, "pumpɔrin": 10339, "1918</w>": 10340, "jam.</w>": 10341, "wɔla</w>": 10342, "daaŋ": 10343, "kpɛrikpɛritiba</w>": 10344, "yiɣi,</w>": 10345, "m-bɔŋɔ,</w>": 10346, "yɔm</w>": 10347, "ninsalinim</w>": 10348, "lili</w>": 10349, "wa’azulana</w>": 10350, "1970)</w>": 10351, "1980)</w>": 10352, "sunni</w>": 10353, "hina": 10354, "dimbɔŋɔ.</w>": 10355, "dimbɔŋɔ,</w>": 10356, "trail</w>": 10357, "yɔŋ</w>": 10358, "yil</w>": 10359, "mphil</w>": 10360, "gundɔɣu</w>": 10361, "private</w>": 10362, "thaddae</w>": 10363, "ɣata": 10364, "ɣuni,</w>": 10365, "saambu</w>": 10366, "ŋɔ,": 10367, "saɣisi": 10368, "wɔɣu</w>": 10369, "tuhili.</w>": 10370, "daashili.</w>": 10371, "ghana,": 10372, "anima</w>": 10373, "low": 10374, "bɔɣili,</w>": 10375, "nuchei</w>": 10376, "post": 10377, "nell</w>": 10378, "nutali</w>": 10379, "jilli</w>": 10380, "dad</w>": 10381, "tumdimi</w>": 10382, "kɔre</w>": 10383, "n-kana.</w>": 10384, "n-kani.</w>": 10385, "obuasi</w>": 10386, "shɛŋ</w>": 10387, "ʒiinikpee</w>": 10388, "bia": 10389, "hel": 10390, "zaydi</w>": 10391, "brown</w>": 10392, "(pro": 10393, "1975,</w>": 10394, "shia.</w>": 10395, "help</w>": 10396, "dallun": 10397, "potosí": 10398, "joshua</w>": 10399, "//</w>": 10400, "kahiŋ": 10401, "kingdom.</w>": 10402, "kilometers</w>": 10403, "yoma.</w>": 10404, "koomson</w>": 10405, "pompi</w>": 10406, "market</w>": 10407, "kpeein</w>": 10408, "dj</w>": 10409, "phere</w>": 10410, "ced</w>": 10411, "betty</w>": 10412, "odamtten</w>": 10413, "ottomanima</w>": 10414, "agbeve</w>": 10415, "tish</w>": 10416, "1933</w>": 10417, "lɛ</w>": 10418, "nambozobo</w>": 10419, "tuntumdiba</w>": 10420, "webb</w>": 10421, "gali.</w>": 10422, "pliŋ</w>": 10423, "amank": 10424, "ziedeng</w>": 10425, "ca.</w>": 10426, "nyɔri,</w>": 10427, "suhusaɣi": 10428, "yâltôê": 10429, "saɣ’</w>": 10430, "kɔr'si</w>": 10431, "jj</w>": 10432, "zɔra</w>": 10433, "botwe</w>": 10434, "moo": 10435, "zilisira</w>": 10436, "yaannina.</w>": 10437, "15%</w>": 10438, "112</w>": 10439, "dɔɣ'</w>": 10440, "in)</w>": 10441, "karimbanima,</w>": 10442, "sain": 10443, "ajitiriba</w>": 10444, "80": 10445, "116</w>": 10446, "maŋ-": 10447, "ever</w>": 10448, "ق": 10449, "bidib": 10450, "200,</w>": 10451, "shɛli;</w>": 10452, "scotland</w>": 10453, "euphrates</w>": 10454, "yiri": 10455, "kigali</w>": 10456, "mo'": 10457, "saeed</w>": 10458, "exchange</w>": 10459, "doola</w>": 10460, "yoola</w>": 10461, "·": 10462, "km2)</w>": 10463, "kparisi</w>": 10464, "bɔhiya</w>": 10465, "stitu": 10466, "ah,</w>": 10467, "nimbiɛ": 10468, "techni": 10469, "34": 10470, "mponua</w>": 10471, "bidib'": 10472, "wula.</w>": 10473, "saviɣu</w>": 10474, "cfr</w>": 10475, "sɔhibiεɣuni</w>": 10476, "yidan": 10477, "“ku</w>": 10478, "haven</w>": 10479, "ini": 10480, "ani,</w>": 10481, "interi": 10482, "fɔna</w>": 10483, "ot": 10484, "saɣim": 10485, "niri": 10486, "enoch</w>": 10487, "ɣishɛli</w>": 10488, "wari": 10489, "djibouti</w>": 10490, "bohindi</w>": 10491, "5.</w>": 10492, "seleucid</w>": 10493, "province</w>": 10494, "kpɛrina</w>": 10495, "dikili</w>": 10496, "buna</w>": 10497, "adua,</w>": 10498, "binyɛr'</w>": 10499, "lihibu.</w>": 10500, "it,</w>": 10501, "amadu</w>": 10502, "tinzun’</w>": 10503, "pumpo": 10504, "ca,</w>": 10505, "ferguson</w>": 10506, "georg</w>": 10507, "sim,</w>": 10508, "machɛlinima</w>": 10509, "viɛlim.</w>": 10510, "cca</w>": 10511, "24": 10512, "chɔɣu</w>": 10513, "kalɛ": 10514, "dce</w>": 10515, "taya</w>": 10516, "palimɛnti</w>": 10517, "birigu.</w>": 10518, "gon</w>": 10519, "dis": 10520, "brass</w>": 10521, "wuli</w>": 10522, "chinim’</w>": 10523, "shab</w>": 10524, "walli</w>": 10525, "gaya</w>": 10526, "kpaa.</w>": 10527, "rasheed</w>": 10528, "ʒibu.</w>": 10529, "sport</w>": 10530, "ekumfi</w>": 10531, "“n</w>": 10532, "kingsley</w>": 10533, "sophia</w>": 10534, "pakochia</w>": 10535, "yuntisuɣu</w>": 10536, "ɣamalisi.</w>": 10537, "ë": 10538, "south-": 10539, "fiɛbiri</w>": 10540, "17th</w>": 10541, "andrew</w>": 10542, "bɔhimbu.</w>": 10543, "colombia</w>": 10544, "kpahimbu.</w>": 10545, "september,</w>": 10546, "bimbuɣisirigu</w>": 10547, "zambu.</w>": 10548, "jihi</w>": 10549, "sakɔm</w>": 10550, "rice</w>": 10551, "looyanima</w>": 10552, "puulana</w>": 10553, "case</w>": 10554, "‘’ka’’</w>": 10555, "kurin": 10556, "pusi": 10557, "hene</w>": 10558, "dayuɣu</w>": 10559, "ambariya</w>": 10560, "zuliya,</w>": 10561, "siyasa</w>": 10562, "kpiya.</w>": 10563, "neeiya.</w>": 10564, "zuliyanim’</w>": 10565, "sariya.</w>": 10566, "ads</w>": 10567, "awura": 10568, "tre": 10569, "pauli</w>": 10570, "africa\"</w>": 10571, "republic.</w>": 10572, "alichiyaama</w>": 10573, "olympics</w>": 10574, "america.</w>": 10575, "leicester</w>": 10576, "icca</w>": 10577, "olympic</w>": 10578, "chichi</w>": 10579, "veronica</w>": 10580, "electrical</w>": 10581, "chichi.</w>": 10582, "ʒiɛhi</w>": 10583, "quansah</w>": 10584, "tiŋkpansi.</w>": 10585, "punpɔŋɔ</w>": 10586, "naʒin</w>": 10587, "na’": 10588, "n-gbaagi</w>": 10589, "board.</w>": 10590, "hibu,</w>": 10591, "labu</w>": 10592, "n-ye</w>": 10593, "green": 10594, "sabigi.</w>": 10595, "bureau</w>": 10596, "nyɛbi</w>": 10597, "yɛltɔŋili</w>": 10598, "n-yaɣi</w>": 10599, "sɔhila</w>": 10600, "bihi)</w>": 10601, "n-daŋ</w>": 10602, "mation</w>": 10603, "ni-": 10604, "mak": 10605, "dɔɣa</w>": 10606, "la-": 10607, "naanzuu</w>": 10608, "و": 10609, "sɔri</w>": 10610, "ibrahima</w>": 10611, "(knust)</w>": 10612, "mauritius</w>": 10613, "dahinshɛli,</w>": 10614, "salinsahi</w>": 10615, "binsheli</w>": 10616, "tuunshɛli</w>": 10617, "kalinsi,</w>": 10618, "binsaba</w>": 10619, "tinshɛŋa</w>": 10620, "gbinni,</w>": 10621, "n’</w>": 10622, "toyin</w>": 10623, "sabin": 10624, "gbɔ": 10625, "midi": 10626, "ʒilεli</w>": 10627, "solar</w>": 10628, "mongol</w>": 10629, "angola.</w>": 10630, "tolandi</w>": 10631, "anthology</w>": 10632, "dunol’</w>": 10633, "nyol’</w>": 10634, "ago": 10635, "tâha</w>": 10636, "jina,</w>": 10637, "jâma</w>": 10638, "akufo</w>": 10639, "kintampo</w>": 10640, "kpam,</w>": 10641, "du'": 10642, "gulana</w>": 10643, "amu": 10644, "thebe</w>": 10645, "tihi.</w>": 10646, "zalikpani</w>": 10647, "amarikanima</w>": 10648, "bilikɔnsi</w>": 10649, "samaria</w>": 10650, "asiria</w>": 10651, "caf</w>": 10652, "beatrice</w>": 10653, "villarreal</w>": 10654, "dead</w>": 10655, "season,</w>": 10656, "naa)</w>": 10657, "gɛ": 10658, "niŋgbuŋ.</w>": 10659, "(2": 10660,
[...]
